, 565684
. 476559
the 186856
de 180059
a 150933
to 118764
of 109647
and 106336
et 93507
la 93337
that 84088
que 82358
le 79447
les 78813
est 78526
I 76433
à 75438
in 73422
l&apos; 66830
un 66512
des 64265
is 63109
it 58824
you 58517
en 58067
d&apos; 54935
&apos;s 53434
une 53176
&quot; 52116
we 51504
on 49895
nous 45695
qui 43161
vous 42540
? 42328
And 39931
ce 39864
dans 38890
this 38795
: 38687
pour 38341
pas 37202
-- 36599
il 31913
je 30382
Et 30181
qu&apos; 29288
was 28398
du 27202
for 27168
are 26861
plus 26117
ne 25699
have 25539
y 25522
they 24408
c&apos; 23468
with 23195
me 22985
n&apos; 22462
can 22053
sur 21409
&apos;t 20916
ai 20718
as 20642
what 20485
an 20449
So 20361
at 20315
be 20272
about 20017
se 18926
j&apos; 18266
sont 18083
avec 17675
all 17670
re@@ 17275
er 17009
au 16955
not 16818
do 16662
ils 16345
ces 16239
one 15935
there 15677
&apos;re 15675
ont 15642
fait 15482
or 15383
my 15176
Je 15113
like 15102
people 15040
It 14973
from 14710
comme 14418
so 14353
in@@ 14335
C&apos; 14327
par 14133
cette 14074
but 14026
ça 13874
Il 13622
é 13429
si 13422
faire 13410
our 13373
s&apos; 13331
était 13275
mais 12978
avons 12720
just 12579
ou 12541
ing 12517
We 12185
tout 12171
The 12093
us 11926
-@@ 11905
ed 11867
But 11837
out 11766
if 11636
Mais 11634
very 11632
these 11587
by 11540
Nous 11534
s@@ 11471
elle 11145
S@@ 10917
them 10862
up 10827
know 10743
aux 10646
es 10624
going 10622
être 10562
ent 10476
more 10395
he 10255
très 10186
when 10173
had 10102
ant 10011
because 9998
ons 9972
ation 9764
monde 9563
think 9538
how 9490
see 9444
their 9409
were 9406
bien 9359
dé@@ 9354
p@@ 9312
who 9302
t@@ 9292
which 9267
your 9193
gens 9104
would 9011
really 8925
al 8924
get 8866
time 8825
ée 8817
&apos;ve 8640
ans 8610
chose 8329
leur 8266
world 8248
dit 8240
ait 8232
és 8210
b@@ 8206
&apos;m 8191
son 8162
way 8145
J&apos; 8104
♫ 8054
même 8048
d@@ 8039
g@@ 8011
You 7943
has 7933
here 7872
then 7868
This 7842
notre 7832
« 7823
C@@ 7812
M@@ 7788
où 7739
» 7717
o@@ 7691
some 7691
don 7658
e 7646
cela 7617
into 7606
été 7468
ez 7425
B@@ 7401
actually 7358
i 7324
La 7308
t 7290
quand 7264
c@@ 7210
suis 7208
peut 7204
where 7187
able 7179
mon 7161
go 7150
te 7128
e@@ 7109
l@@ 7104
tous 7087
years 7087
s 7072
en@@ 7005
will 7005
h@@ 6973
now 6970
things 6960
Vous 6948
aussi 6906
other 6855
i@@ 6807
r@@ 6769
Les 6715
é@@ 6713
A@@ 6692
Now 6668
could 6646
D@@ 6621
vraiment 6618
want 6610
ch@@ 6573
beaucoup 6508
They 6480
been 6476
n@@ 6474
m&apos; 6469
make 6443
donc 6395
Le 6383
parce 6309
; 6296
P@@ 6268
Ce 6262
L@@ 6206
T@@ 6176
v@@ 6152
autre 6141
deux 6131
f@@ 6122
m@@ 6121
Donc 6112
un@@ 6020
ate 6019
choses 6005
ers 5995
o 5994
ré@@ 5967
ées 5966
voir 5949
ar@@ 5945
vie 5928
R@@ 5922
On 5917
y@@ 5912
H@@ 5837
is@@ 5826
nos 5813
said 5813
di@@ 5775
right 5774
or@@ 5770
something 5760
autres 5747
er@@ 5734
ts 5734
than 5733
a@@ 5705
TED 5695
thing 5631
age 5578
those 5530
elles 5508
much 5481
Ils 5460
ses 5458
ti@@ 5439
entre 5429
on@@ 5422
no 5418
ma 5415
avait 5414
dire 5392
as@@ 5385
k@@ 5384
first 5378
votre 5369
quelque 5368
li@@ 5347
dis@@ 5286
also 5267
En 5260
two 5255
là 5254
got 5201
an@@ 5188
avoir 5174
co@@ 5170
A 5131
his 5088
little 5083
work 5066
am@@ 5060
fois 5055
ad@@ 5050
look 5033
In 5032
ici 5032
back 5019
F@@ 4992
mes 4992
peu 4987
temps 4987
E@@ 4976
That 4971
ag@@ 4949
over 4947
al@@ 4936
N@@ 4926
u@@ 4903
say 4840
most 4811
life 4810
it@@ 4809
ri@@ 4799
ations 4785
only 4780
el@@ 4772
even 4762
comment 4756
What 4748
she 4734
tr@@ 4727
con@@ 4676
aient 4661
its 4653
at@@ 4631
need 4617
ac@@ 4592
question 4562
important 4552
take 4542
moi 4491
w@@ 4477
st@@ 4470
J@@ 4465
many 4448
lot 4424
ais 4397
pouvez 4384
point 4367
K@@ 4360
new 4357
ter 4343
kind 4336
ab@@ 4326
par@@ 4318
ine 4294
! 4218
her 4212
em@@ 4209
avez 4207
re 4206
qu@@ 4203
pense 4195
around 4191
personnes 4184
el 4177
G@@ 4176
im@@ 4170
eux 4169
sa 4167
leurs 4163
did 4160
es@@ 4133
ou@@ 4119
eur 4114
There 4098
Alors 4091
po@@ 4076
encore 4063
sommes 4063
L&apos; 4052
ted 4046
different 4043
ap@@ 4023
ement 4019
dont 4016
good 4008
Talk 4002
place 3999
tes 3993
Si 3982
- 3981
&apos;ll 3964
m 3955
down 3950
ale 3938
come 3937
through 3928
années 3919
day 3913
use 3887
ated 3879
pro@@ 3842
Subtitles 3828
Transcript 3828
ex@@ 3823
moment 3810
th@@ 3773
cr@@ 3765
tant 3764
every 3738
façon 3730
10 3701
pl@@ 3698
part 3691
same 3686
ie 3684
et@@ 3676
being 3675
com@@ 3662
ité 3647
pays 3641
sans 3632
k 3630
alors 3623
aire 3595
He 3577
Well 3573
enfants 3572
juste 3566
O@@ 3565
toutes 3544
put 3528
vais 3528
maintenant 3509
va 3509
hui 3494
ants 3470
doing 3469
per@@ 3468
If 3462
ally 3456
tion 3445
d 3421
&apos; 3410
ly 3405
eurs 3402
ance 3401
besoin 3400
inter@@ 3396
change 3380
p 3364
I@@ 3346
ol@@ 3332
ds 3295
eau 3279
jamais 3277
car 3273
op@@ 3260
called 3259
si@@ 3259
any 3250
ante 3247
ro@@ 3244
histoire 3238
lui 3220
non 3197
moins 3191
eu 3188
percent 3177
veux 3159
&apos;d 3158
talk 3141
idée 3133
gr@@ 3126
vers 3120
three 3117
made 3105
quelques 3074
té 3065
problème 3058
j@@ 3057
well 3031
après 3030
de@@ 3029
... 3025
ite 3023
étaient 3022
long 3020
mo@@ 3017
why 3012
aires 3001
end 2983
human 2977
fi@@ 2967
bi@@ 2963
ère 2961
W@@ 2954
toujours 2953
ever 2951
am 2950
find 2940
ens 2938
ai@@ 2930
year 2926
els 2925
seulement 2919
own 2916
dollars 2911
peuvent 2911
tell 2906
om@@ 2905
chaque 2904
sh@@ 2889
aujourd&apos; 2875
pendant 2873
Elle 2865
lo@@ 2865
res@@ 2858
ul@@ 2853
c 2851
vi@@ 2841
to@@ 2828
ic@@ 2822
fact 2808
au@@ 2803
pouvons 2794
let 2791
x 2791
Voici 2790
20 2775
didn 2773
gu@@ 2773
parler 2769
today 2760
est-ce 2750
min@@ 2750
l 2748
tions 2736
man 2735
simple 2726
soit 2724
idea 2720
ales 2711
started 2710
personne 2705
course 2704
great 2704
peut-être 2701
tu@@ 2700
bl@@ 2694
travail 2693
êtes 2691
ci@@ 2689
partie 2688
il@@ 2687
système 2686
av@@ 2679
jour 2676
trois 2672
pré@@ 2671
Merci 2664
n 2664
mar@@ 2662
g 2646
exemple 2644
ity 2641
after 2639
étais 2638
ous 2635
ence 2633
su@@ 2629
pi@@ 2628
V@@ 2613
red 2609
savez 2602
ting 2599
ins 2593
ques 2593
better 2591
u 2591
information 2584
trans@@ 2580
ks 2577
big 2570
might 2570
should 2569
science 2561
millions 2556
avant 2554
before 2548
bo@@ 2548
quoi 2544
last 2541
went 2539
off 2536
ic 2534
cet 2530
ir@@ 2527
give 2526
thought 2525
première 2515
% 2512
system 2511
possible 2508
z@@ 2505
ér@@ 2504
commencé 2501
ents 2485
another 2484
se@@ 2481
bit 2480
ot@@ 2476
used 2462
ge 2455
problem 2448
50 2445
pr@@ 2444
ors 2440
Thank 2439
ec@@ 2438
never 2432
story 2429
ver@@ 2428
together 2421
toute 2417
design 2414
still 2413
voyez 2410
ment 2402
Dans 2398
cou@@ 2384
him 2381
ating 2376
manière 2364
Un 2355
pourquoi 2337
ago 2329
fl@@ 2327
sou@@ 2327
start 2322
ass@@ 2321
grand 2319
avais 2316
è@@ 2312
show 2311
next 2308
ent@@ 2307
ph@@ 2301
each 2290
mon@@ 2290
brain 2285
million 2270
art 2268
2 2258
sûr 2256
Une 2254
Ça 2253
came 2247
few 2243
h 2231
When 2229
puis 2226
vu 2226
does 2225
ill@@ 2225
30 2224
again 2223
.@@ 2216
der 2215
ve 2213
cor@@ 2210
between 2206
jusqu&apos; 2205
water 2202
femmes 2200
depuis 2199
données 2195
cl@@ 2191
technology 2189
Quand 2185
ter@@ 2183
car@@ 2181
br@@ 2180
3@@ 2174
tique 2172
che 2169
man@@ 2169
grande 2168
try 2167
cerveau 2164
How 2162
too 2161
data 2155
aller 2153
rien 2150
public 2142
prendre 2140
cu@@ 2138
women 2134
ét@@ 2128
onn@@ 2123
nature 2120
sort 2109
ary 2106
face 2103
ain 2102
sp@@ 2098
mean 2097
found 2093
looking 2092
assez 2081
tu 2074
quelqu&apos; 2068
mer 2066
ser@@ 2058
pourrait 2056
petit 2055
air 2050
000 2049
less 2044
bon 2040
no@@ 2039
trouver 2039
faut 2035
technologie 2029
so@@ 2022
chez 2021
font 2013
train 2008
Cela 2006
Maintenant 2004
le@@ 2003
créer 2001
cas 1996
example 1994
questions 1994
New 1990
dr@@ 1990
us@@ 1988
e-@@ 1987
ves 1983
love 1979
pos@@ 1975
live 1967
avaient 1966
done 1965
doesn 1964
ies 1963
&#91; 1958
&#93; 1955
Because 1955
king 1955
social 1952
wanted 1947
sur@@ 1945
utiliser 1941
using 1939
understand 1936
U@@ 1935
3 1934
old 1932
pouvoir 1930
ar 1929
mettre 1929
passe 1926
100 1921
pe@@ 1920
be@@ 1916
pre@@ 1913
bu@@ 1908
children 1907
per 1905
working 1904
real 1898
image 1894
vos 1893
end@@ 1891
mi@@ 1884
ables 1881
Pour 1879
sorte 1873
um 1870
call 1869
devons 1869
passé 1865
away 1863
4@@ 1861
help 1861
tri@@ 1859
cré@@ 1858
comprendre 1856
ines 1856
genre 1855
whole 1852
power 1846
four 1844
environ 1842
fu@@ 1837
all@@ 1835
4 1834
ps 1834
str@@ 1834
trying 1833
ative 1832
may 1831
nouveau 1830
cancer 1829
ères 1829
ded 1827
ju@@ 1825
Internet 1821
appelle 1818
ique 1818
do@@ 1816
always 1813
person 1813
ch 1799
premier 1796
ages 1794
tic 1794
ni@@ 1793
light 1788
ches 1787
als 1786
minutes 1781
school 1780
believe 1773
gi@@ 1773
déjà 1772
feel 1770
peux 1769
ma@@ 1766
country 1765
ding 1759
six 1754
body 1749
ur@@ 1742
fer@@ 1737
sens 1737
Parce 1726
ise 1724
thinking 1724
sure 1721
Al@@ 1720
cul@@ 1716
second 1716
1 1714
create 1710
f 1707
ang@@ 1701
res 1700
plutôt 1699
and@@ 1698
ev@@ 1696
ten@@ 1696
cours 1691
future 1686
sais 1686
side 1686
means 1685
eu@@ 1684
for@@ 1683
5 1681
simplement 1677
problèmes 1675
forme 1673
r 1673
Comment 1669
jours 1667
du@@ 1666
cher 1665
année 1664
homme 1664
space 1664
savoir 1663
donner 1660
plupart 1660
montrer 1659
tent 1659
money 1658
took 1657
bonne 1654
travers 1654
b 1646
penser 1639
comes 1637
ville 1637
kids 1636
cause 1631
ness 1631
become 1629
cont@@ 1627
ensemble 1626
ue 1624
making 1623
ceci 1620
corps 1620
maybe 1620
fin@@ 1617
In@@ 1615
type 1615
nouvelle 1613
One 1610
everything 1607
parents 1605
gar@@ 1604
sub@@ 1602
ty 1601
ats 1599
number 1597
OK 1595
fin 1590
sous 1589
home 1585
gl@@ 1584
My 1583
ho@@ 1583
small 1582
changer 1576
hi@@ 1576
times 1575
crois 1573
pu@@ 1571
mois 1570
ir 1567
mieux 1567
Ar@@ 1564
énergie 1564
15 1561
contre 1558
ain@@ 1556
getting 1556
antes 1553
men 1551
te@@ 1551
près 1550
appar@@ 1547
ceux 1547
ains 1545
five 1543
importe 1543
sions 1542
Ch@@ 1535
raison 1535
population 1534
pris 1534
ensuite 1533
sense 1533
ainsi 1532
por@@ 1532
ability 1529
laquelle 1528
voici 1527
enough 1524
ways 1521
play 1520
She 1519
trop 1519
culture 1518
go@@ 1518
argent 1516
ates 1516
th 1515
hommes 1512
ke 1510
food 1506
says 1506
These 1499
nombre 1499
8 1498
5@@ 1497
quite 1497
lieu 1494
petite 1494
building 1491
best 1490
ets 1490
ist@@ 1488
1@@ 1486
energy 1486
pe 1486
Pourquoi 1481
quement 1480
trouve 1478
Oh 1477
agit 1477
t-@@ 1477
vrai 1475
der@@ 1473
pou@@ 1473
Tout 1471
enne 1470
ess@@ 1470
happened 1470
left 1466
ire 1465
countries 1461
doit 1459
Why 1452
main 1452
set 1452
veut 1451
machine 1449
santé 1447
talking 1447
without 1447
images 1446
quel 1445
x@@ 1444
cent 1443
top 1441
lives 1440
os 1440
ru@@ 1439
ances 1438
told 1438
Here 1436
projet 1436
int@@ 1434
pour@@ 1434
ements 1433
gen@@ 1430
mor@@ 1430
19@@ 1428
serait 1428
build 1427
mu@@ 1426
mis@@ 1424
probably 1424
expérience 1422
mal 1422
coming 1421
interesting 1420
6 1416
case 1416
room 1414
Let 1413
certains 1413
ones 1409
pres@@ 1408
ateur 1407
York 1406
action 1404
femme 1404
rel@@ 1404
7 1403
Su@@ 1403
des@@ 1402
mis 1402
vo@@ 1401
ay 1394
espace 1393
ez-vous 1393
— 1391
vont 1389
ff@@ 1387
♪ 1387
ge@@ 1386
passer 1386
ask 1385
makes 1385
côté 1383
compte 1382
line 1380
out@@ 1379
mé@@ 1376
stuff 1376
trouvé 1376
ban@@ 1374
ori@@ 1373
force 1371
hard 1363
tard 1361
lorsque 1360
propre 1360
such 1358
vision 1357
ach@@ 1355
ings 1353
off@@ 1353
ely 1352
global 1348
anything 1347
attention 1347
across 1346
D&apos; 1345
ay@@ 1345
fr@@ 1345
move 1345
ist 1344
pretty 1342
ions 1340
seen 1340
ath@@ 1336
tre 1336
sup@@ 1333
40 1332
happen 1331
w 1329
bou@@ 1328
certain 1327
souvent 1327
sera 1326
Cette 1325
ked 1325
bio@@ 1323
vient 1318
seule 1317
parle 1316
ren@@ 1316
saw 1315
As 1313
allons 1313
half 1313
family 1312
tro@@ 1312
No 1310
os@@ 1309
Africa 1308
différentes 1308
For 1307
ég@@ 1307
ber@@ 1306
living 1306
while 1305
ws 1303
table 1300
aff@@ 1299
surface 1297
Au 1296
experience 1295
city 1294
An@@ 1293
réalité 1293
endroit 1292
enfant 1292
Y@@ 1290
Ces 1289
idées 1289
Qu&apos; 1288
days 1287
era 1287
ob@@ 1287
ton 1282
position 1278
learn 1277
Afrique 1275
quatre 1274
care 1273
aine 1272
autour 1272
20@@ 1271
chance 1267
bles 1266
else 1265
technologies 1264
having 1263
ment@@ 1262
asked 1261
difficile 1260
pass@@ 1260
école 1260
later 1258
euse 1257
solution 1256
id@@ 1255
wh@@ 1255
s-@@ 1253
sc@@ 1252
land 1251
C 1250
business 1250
gros 1249
prim@@ 1245
ette 1242
ble 1241
happens 1240
ven@@ 1240
goes 1239
ia 1239
hand 1238
young 1238
ties 1236
pu 1235
computer 1234
maison 1233
construire 1232
société 1232
enti@@ 1231
vue 1229
niveau 1228
high 1227
imagine 1227
60 1225
z 1225
dic@@ 1224
dev@@ 1223
ari@@ 1218
her@@ 1216
lu@@ 1216
once 1216
reason 1216
changement 1215
large 1215
famille 1214
groupe 1214
photo 1214
vol@@ 1214
arrive 1211
cap@@ 1211
over@@ 1210
Re@@ 1209
bad 1209
book 1209
mind 1208
ne@@ 1208
problems 1208
form 1207
cour@@ 1206
health 1206
planète 1206
marché 1204
bas@@ 1201
cer@@ 1201
film 1201
me@@ 1201
ra@@ 1201
seul 1201
également 1201
ms 1198
hu@@ 1197
patients 1197
process 1197
nouvelles 1196
rai@@ 1196
met@@ 1194
rem@@ 1194
ful 1190
contr@@ 1187
ités 1186
inside 1185
ture 1184
led 1183
Earth 1182
met 1181
community 1180
CA 1179
nu@@ 1179
picture 1177
All 1175
almost 1175
dec@@ 1173
partir 1173
bar@@ 1171
pan@@ 1171
De 1169
situation 1168
test 1167
far 1166
lumière 1165
reste 1165
yet 1164
both 1160
planet 1160
tive 1160
form@@ 1159
milliards 1157
ites 1154
7@@ 1152
Des 1152
already 1152
har@@ 1152
prom@@ 1152
structure 1152
essayer 1150
fac@@ 1150
quer 1150
vis@@ 1150
Z@@ 1149
act 1149
fo@@ 1149
single 1149
cre@@ 1148
can@@ 1147
gets 1147
humain 1145
project 1143
alis@@ 1142
ideas 1142
iste 1142
presque 1142
saying 1142
aider 1141
Par@@ 1139
Eh 1138
sujet 1137
looked 1135
travailler 1135
ess 1134
faisons 1133
réponse 1133
sé@@ 1133
qué 1132
rez 1132
sol@@ 1132
often 1131
ver 1130
savons 1128
yeux 1128
donne 1127
humains 1127
words 1127
syn@@ 1123
ler 1122
6@@ 1119
whether 1119
open 1118
ger 1117
ni 1117
ss@@ 1117
tellement 1117
montre 1116
pen@@ 1116
produit 1116
esprit 1115
faites 1115
history 1115
est@@ 1114
super@@ 1114
plusieurs 1113
tiques 1113
cro@@ 1112
d-@@ 1112
donné 1112
looks 1112
Elles 1111
aide 1110
apprendre 1110
ea@@ 1109
haut 1109
someone 1109
ters 1108
within 1108
9@@ 1107
order 1106
ner 1104
St@@ 1102
iss@@ 1102
answer 1100
base 1100
demandé 1099
ligne 1099
nothing 1098
bri@@ 1097
avions 1096
ker 1096
billion 1095
ille 1094
keep 1094
ad 1093
accord 1092
voy@@ 1092
B 1091
matter 1091
2@@ 1090
Mar@@ 1090
él@@ 1088
rap@@ 1087
ème 1087
basically 1086
wrong 1085
true 1084
Th@@ 1083
différents 1083
fil@@ 1079
animal 1077
ics 1077
bur@@ 1076
cal@@ 1076
couple 1076
fai@@ 1076
père 1075
cri@@ 1074
recherche 1074
époque 1074
commencer 1073
loc@@ 1073
9 1072
oc@@ 1072
Voilà 1071
az@@ 1071
job 1071
ect@@ 1070
myself 1070
animaux 1069
heures 1068
cho@@ 1066
guerre 1064
bring 1062
child 1062
jeu 1062
teurs 1062
Mo@@ 1061
col@@ 1060
ann@@ 1059
ici@@ 1059
cellules 1058
plan 1057
allez 1056
mère 1055
mag@@ 1054
ut 1054
United 1053
cells 1053
control 1053
guy 1053
ati@@ 1052
hope 1052
livre 1052
signifie 1052
built 1051
months 1050
ing@@ 1049
works 1049
0s 1048
fe@@ 1048
moyen 1048
cinq 1047
heard 1047
G 1045
places 1045
remember 1045
front 1044
robot 1044
appris 1043
S 1042
night 1042
dy 1041
amazing 1039
word 1038
Bien 1037
jo@@ 1037
pouvait 1037
voulez 1037
read 1036
sal@@ 1036
D 1034
Oui 1034
ard 1033
comp@@ 1033
state 1032
Europe 1031
ign@@ 1031
lim@@ 1030
beautiful 1029
men@@ 1028
probablement 1027
um@@ 1027
group 1026
rendre 1026
Mon@@ 1021
rec@@ 1020
head 1019
communauté 1018
12 1017
tic@@ 1017
ateurs 1015
ey 1015
sk@@ 1015
8@@ 1014
éri@@ 1014
environnement 1012
iter 1012
phone 1012
regarder 1012
tête 1012
mal@@ 1011
impact 1010
indi@@ 1010
processus 1010
sec@@ 1009
research 1008
â@@ 1008
house 1007
wasn 1007
gh@@ 1006
piece 1006
80 1005
développement 1005
music 1005
Que 1004
our@@ 1004
turn 1004
tés 1004
innovation 1001
government 1000
inv@@ 1000
modèle 1000
ling 999
venir 999
ner@@ 998
stories 998
the@@ 997
aurait 995
dernière 994
jou@@ 993
teur 993
début 992
ordinateur 992
psycho@@ 992
species 991
though 991
États-Unis 991
rend@@ 990
until 988
dent 987
inf@@ 987
pensé 987
ra 987
stop 986
vivre 986
ical 984
points 984
25 983
cur@@ 982
language 981
petits 981
lin@@ 980
mots 980
alité 979
ellement 979
mort 978
amis 977
anti@@ 977
violence 977
ill 976
ell@@ 975
voiture 975
under 974
intérieur 973
ta@@ 973
bas 972
model 972
0@@ 971
grâce 970
voilà 970
taking 969
devez 967
ed@@ 967
aime 966
complètement 966
coll@@ 965
Le@@ 964
informations 964
site 963
ak@@ 962
Con@@ 961
plan@@ 961
rent 961
became 960
devenir 959
tle 959
continu@@ 958
isn 958
partout 958
message 957
commence 956
he@@ 956
politique 955
disent 954
education 954
friends 954
histoires 954
musique 954
capable 953
meilleur 953
sion 953
video 953
univers 951
learned 950
En@@ 948
everybody 948
America 947
bor@@ 947
voit 947
ze 947
ourselves 946
share 946
tou@@ 946
level 945
completely 944
ear@@ 944
nom 944
woman 944
Comme 943
Google 943
quelle 943
Qu@@ 942
la@@ 941
tionn@@ 939
appelé 937
né 937
run 937
States 936
Com@@ 935
Mon 935
peur 932
porte 930
ry 930
up@@ 930
T 928
knew 928
study 928
decided 927
exactly 926
animals 925
entendu 925
donn@@ 924
certaines 923
érer 923
propos 922
créé 921
happening 921
regardez 921
itself 919
Terre 918
istes 918
mas@@ 918
name 918
universe 918
voulais 918
Non 916
ager 916
aw@@ 916
hom@@ 916
turns 916
ve@@ 915
against 914
entes 914
prot@@ 914
ues 914
aucune 913
takes 913
tour@@ 913
ection 912
intéressant 912
iques 912
students 912
ah 911
effet 911
war 911
American 910
figure 910
ré 910
comm@@ 909
hor@@ 908
log@@ 908
aucun 906
ah@@ 905
clo@@ 905
connec@@ 905
society 905
since 903
incroyable 902
dro@@ 901
local 901
/ 899
India 899
Okay 899
themselves 898
état 898
ce@@ 896
décidé 896
patient 896
afin 895
somebody 895
capacité 894
hear 894
abord 893
dernières 893
loin 893
ali@@ 892
must 892
sait 889
source 889
gouvernement 887
st 887
poser 886
systems 886
marche 884
Bon 883
heart 882
created 881
futur 879
mer@@ 879
entr@@ 878
jeunes 878
ot 878
appro@@ 877
att@@ 877
kinds 876
bul@@ 874
company 874
ig@@ 874
choix 873
esse 873
villes 873
chi@@ 872
non-@@ 872
vidéo 871
tres 870
ars 869
ator 869
hours 869
sometimes 869
happy 865
key 865
lequel 865
lic@@ 865
den 864
worked 864
grandes 863
production 863
Est-ce 862
M 862
val@@ 862
existe 861
huge 861
ber 860
ice 860
ché 858
milliers 858
robots 858
siècle 858
équipe 858
die 857
disease 857
qui@@ 857
500 855
rather 855
ots 854
tons 854
demande 853
dernier 853
pose 853
ty@@ 853
év@@ 853
nourriture 852
Inde 851
éducation 851
century 849
od@@ 849
ï@@ 848
Or 847
parfois 846
sive 844
terre 844
fais 843
gs 843
others 843
Ceci 842
couldn 842
découvert 842
fon@@ 842
port@@ 842
semble 842
game 841
fish 840
environment 839
ends 838
mesure 838
coup 837
exactement 837
tures 837
wi@@ 837
systèmes 835
amour 834
Then 833
based 833
everyone 833
known 833
view 833
early 832
turned 832
ories 831
God 830
inc@@ 830
sent 830
shows 830
ments 829
mot 829
nor@@ 828
iez 827
thousands 827
tra@@ 826
écrit 826
grands 825
past 825
tur@@ 825
200 824
natural 824
R 822
économie 822
along 821
dis 821
ier 821
least 821
inst@@ 820
anc@@ 819
dois 819
dou@@ 819
11 818
compassion 818
code 817
instead 817
oui 817
particular 817
photos 817
70 816
sent@@ 816
attend@@ 815
réellement 815
we@@ 815
gé@@ 814
rapidement 814
taken 814
ack 813
voulons 812
celle 811
identi@@ 811
jouer 811
lots 811
sound 811
entire 810
news 809
virus 809
tics 808
vent 807
ature 806
sécurité 806
contribu@@ 804
dessus 804
ther 804
celui 803
mother 803
ide 802
won 802
Chris 801
arriver 801
ente 801
father 801
fille 801
alement 800
esti@@ 800
guys 800
Sh@@ 799
powerful 799
changed 798
meilleure 798
mp@@ 797
ressemble 797
unique 797
ç@@ 797
actions 796
devant 796
illes 796
Dieu 795
itation 795
ons-nous 794
ail 793
ais@@ 793
conditions 792
difference 792
gave 792
impossible 792
scientifiques 792
China 790
scale 789
suite 788
learning 786
market 786
étudiants 786
Par 785
dét@@ 785
importante 785
rac@@ 785
tement 785
199@@ 784
cities 784
tel 784
compris 783
behind 782
compar@@ 782
low 782
rer 782
taille 781
ind@@ 780
ade 779
cell 779
entier 779
permet 779
outside 778
prix 778
Vo@@ 777
isme 777
ète 777
pli@@ 776
ant@@ 775
bro@@ 774
longtemps 774
vies 774
app@@ 773
tor@@ 773
erait 772
types 772
version 772
wing 772
euses 771
free 771
voyons 771
den@@ 770
différence 770
moving 770
ris@@ 770
É@@ 770
ences 769
endroits 769
ive 769
ls 769
mission 769
nes 769
No@@ 768
ously 768
Ainsi 767
dat@@ 767
ving 765
croy@@ 764
imagin@@ 763
maladie 763
parts 763
police 763
cas@@ 762
spec@@ 762
Chine 761
ically 761
iser 761
mêmes 760
under@@ 760
close 759
fs 759
ê@@ 759
18 758
accep@@ 758
rs 757
son@@ 757
village 757
âge 757
leave 756
page 756
At 755
K 755
dû 755
veulent 754
changé 753
air@@ 752
fut 752
self-@@ 752
service 752
ists 751
énorme 750
entreprises 749
utilise 749
atives 748
humaine 748
rée 748
cool 747
regarde 747
tis@@ 747
irs 746
neuro@@ 746
parti@@ 746
area 745
ession 745
facile 745
obtenir 745
third 745
bes 744
ect 744
ish 744
Amérique 743
given 743
petites 743
devenu 742
bat@@ 741
wn 741
ane 740
calcul@@ 740
fier 740
échelle 740
ame 739
cop@@ 738
Po@@ 737
mouvement 737
normal 737
sti@@ 736
black 735
bout 735
produits 735
rement 735
eyes 734
ning 734
plein 734
Co@@ 733
chacun 733
continue 733
mine 733
én@@ 733
a-@@ 732
ace 732
bon@@ 732
team 731
walk 731
ast 729
atif 729
field 729
issent 729
machines 729
milieu 729
puisse 729
oun@@ 728
yourself 728
centre 727
sav@@ 727
tez 726
Bu@@ 725
needs 725
pul@@ 725
Ro@@ 724
croissance 724
easy 724
eng@@ 724
af@@ 723
began 723
droit 723
solutions 723
vite 722
z-vous 722
gauche 721
heureux 721
ta 721
ground 720
media 720
pes 720
seeing 720
selon 720
direction 719
needed 719
arrivé 718
cli@@ 718
demander 718
ism 718
représent@@ 718
vari@@ 718
TED@@ 717
difficult 717
ship 716
devrait 715
economic 715
ong@@ 715
pas@@ 715
90 714
Puis 714
companies 713
viennent 713
De@@ 712
finally 712
produire 712
size 712
ile 711
wer 711
architecture 710
changes 710
my@@ 710
perhaps 710
mondiale 709
rons 709
devient 708
pay@@ 708
ettes 707
prise 707
réseau 707
simply 707
À 707
beginning 706
cost 705
doivent 705
multi@@ 705
uni@@ 705
jeune 704
terms 704
uns 704
active 703
aimerais 703
ended 703
ake 702
gener@@ 702
salle 702
combien 701
during 701
ery 700
grow 700
nouveaux 700
évolution 700
Ou 699
emp@@ 699
ered 699
fort 699
mètres 699
zone 699
allé 698
ory 698
realized 698
ress@@ 698
Car@@ 697
friend 697
porter 697
sau@@ 697
utilisé 697
18@@ 696
contrôle 696
préf@@ 696
èrent 696
extr@@ 695
nuit 695
humans 694
int 694
seven 694
zed 694
parlé 693
cannot 692
collec@@ 692
mains 692
minute 692
Be@@ 690
services 690
entreprise 689
posé 689
étude 689
ô@@ 689
middle 688
vir@@ 688
common 687
différent 687
reality 687
vacc@@ 687
cy@@ 686
vers@@ 686
Ex@@ 685
Pas 685
cher@@ 685
prof@@ 685
Some 684
adap@@ 684
main@@ 684
oy@@ 684
sel@@ 684
concept 682
grand@@ 682
imaginer 682
oil 682
om 682
wonderful 682
Au@@ 681
felt 681
longer 681
,@@ 680
exam@@ 680
t-il 680
viol@@ 680
fonctionne 679
particulier 679
death 678
ency 678
hands 678
ther@@ 678
gri@@ 677
Do 676
ret@@ 676
ack@@ 675
cen@@ 675
eg@@ 675
mou@@ 675
Tu 674
growth 674
lib@@ 674
stage 674
&amp; 673
deuxième 673
paper 673
whatever 673
Per@@ 672
gue 672
People 671
full 671
voix 671
Is 670
hold 670
o-@@ 670
pensez 670
étions 670
autant 669
dem@@ 669
pal@@ 669
combin@@ 668
amount 667
analy@@ 667
hy@@ 667
political 667
Hu@@ 666
Li@@ 666
pon@@ 666
quickly 666
trouv@@ 666
acy 665
micro@@ 665
physique 665
spéci@@ 665
partager 664
rou@@ 663
sor@@ 663
centaines 662
explo@@ 662
heure 662
pouvais 662
programme 662
carte 661
deal 661
ocean 661
ash@@ 660
ges 660
rés 660
spent 660
conférence 659
résultats 659
spend 659
visu@@ 659
X@@ 658
présent 658
week 658
gro@@ 657
cam@@ 656
re-@@ 656
conversation 655
ders 655
moitié 655
prison 655
réalis@@ 655
terme 655
associ@@ 654
construction 654
droite 654
fly 654
sing 654
voudrais 654
éré 654
David 653
poor 653
intelligence 652
lis@@ 652
pol@@ 652
id 651
part@@ 651
ward 651
Gu@@ 650
hon@@ 650
tried 650
Nor@@ 649
éch@@ 649
constru@@ 648
trai@@ 648
web 648
pain 647
ran@@ 647
tor 647
John 646
To 646
arr@@ 646
construit 646
impression 646
soci@@ 646
derrière 645
ion 645
prend 645
quent 645
résoudre 645
sho@@ 645
abilité 644
lost 644
propres 644
tre@@ 644
abor@@ 643
born 643
ected 643
ins@@ 643
Wh@@ 642
soient 642
bal@@ 641
ently 641
esp@@ 641
exc@@ 641
ow@@ 641
pourraient 641
semaines 641
y-@@ 641
Yeah 640
ck@@ 640
interested 640
O 639
ci 639
institutions 639
opportunity 639
personn@@ 638
char@@ 637
importance 637
iv@@ 637
montré 637
value 637
voie 637
flo@@ 636
maladies 636
challenge 635
climate 635
gone 635
ell 634
formes 634
lie 634
Our 633
pensent 632
rest 632
For@@ 631
World 630
ail@@ 630
economy 630
logique 630
wor@@ 630
ick 629
raisons 629
relation 629
ved 629
Di@@ 628
bed 628
books 627
growing 627
behavior 626
cle 626
ong 626
weeks 626
aise 624
termes 624
Just 623
complex 623
livres 623
leaders 622
ouv@@ 622
semaine 622
aim@@ 621
fic@@ 621
outils 621
acti@@ 620
eight 620
ond@@ 620
clear 619
filles 619
support 619
exp@@ 618
finalement 618
war@@ 618
économique 618
aura 617
ear 617
knowledge 617
P 616
bel@@ 616
mental 616
pensons 616
plac@@ 616
DNA 615
avenir 615
miles 615
nombreux 615
pay 615
scientifique 615
either 614
forward 614
initi@@ 614
national 614
sitting 614
write 614
ans@@ 613
connu 613
employ@@ 613
ian 613
incredible 613
step 613
telling 612
uses 612
audience 611
ck 611
observ@@ 611
positive 611
Yes 610
dé 610
etc 610
lev@@ 610
sortir 610
aut@@ 609
fro@@ 609
han@@ 609
éco@@ 609
ADN 608
giving 608
scientists 608
Aujourd&apos; 607
acc@@ 607
accès 607
dispar@@ 607
ying 607
L 606
ailleurs 606
che@@ 606
coun@@ 606
program 606
Mars 605
lire 604
sen@@ 604
areas 603
buy 603
gén@@ 603
rapport 603
ste@@ 603
Tr@@ 602
ey@@ 602
hand@@ 602
mot@@ 602
pièce 602
voyage 602
atta@@ 601
fully 601
physi@@ 601
seconde 601
don@@ 600
espèces 600
faisant 600
fied 600
lement 600
14 599
attr@@ 599
autor@@ 599
,000 598
ality 598
lorsqu&apos; 598
pic@@ 598
issue 597
ram@@ 597
Se@@ 596
ambi@@ 596
communication 596
premiers 596
tion@@ 596
comportement 595
pé@@ 595
const@@ 594
feeling 594
feet 594
nombreuses 593
rait 593
sortes 593
logical 592
objets 592
tour 592
viv@@ 592
personal 591
pur@@ 591
scène 591
sous-@@ 591
travaille 591
valeur 591
économ@@ 591
laisser 590
access 589
bre@@ 589
différente 589
résultat 589
déf@@ 588
ring 588
sil@@ 588
tation 588
es-@@ 587
understanding 587
average 586
ched 586
transform@@ 586
wouldn 586
Après 585
souff@@ 585
études 585
espère 584
inform@@ 584
physical 584
white 584
étant 584
green 583
justice 583
ressources 583
ami 582
ana 582
disait 582
eat 582
espèce 582
numbers 582
suivre 582
théorie 582
Can 581
issues 581
win@@ 581
prenez 580
Avec 579
brought 579
fond 579
tools 579
board 578
forc@@ 578
forces 578
perspective 578
tirer 578
ca@@ 577
ister 577
mem@@ 577
taux 577
arch@@ 576
changing 576
fini 576
reli@@ 576
developed 575
fran@@ 575
aci@@ 574
entre@@ 574
speak 574
vie@@ 574
Gr@@ 573
Right 573
alone 573
ote 573
tiny 573
E 572
dés@@ 572
morning 572
pat@@ 572
Bro@@ 571
adop@@ 571
bons 571
conn@@ 571
fol@@ 571
ordinateurs 571
réel 571
realize 570
tin@@ 570
blood 569
conscience 569
final 569
ours 569
sem@@ 569
serv@@ 569
sol 569
tical 568
Not 567
blo@@ 567
cles 567
gives 567
map 567
tif 567
Ac@@ 566
blue 566
parmi 566
thé@@ 566
tru@@ 566
Ju@@ 565
U.S. 565
hundreds 565
pil@@ 565
til@@ 565
risk 564
tomb@@ 564
utilis@@ 564
écrire 564
Ma@@ 563
essayé 563
Un@@ 562
comman@@ 562
gre@@ 562
jeux 562
dri@@ 561
intéress@@ 561
ony 561
Ensuite 560
fer 560
là-bas 560
terri@@ 560
Bo@@ 559
ering 559
expliquer 559
hab@@ 559
matin 559
pren@@ 559
fast 558
rend 558
logy 557
migr@@ 557
produc@@ 557
seems 557
starting 557
zones 557
Br@@ 556
ators 556
groupes 556
né@@ 556
Ti@@ 555
individual 555
inten@@ 555
tric@@ 555
Mc@@ 554
Pr@@ 554
ash 554
cel@@ 554
développer 554
ping 554
vois 554
13 553
16 553
Afghanistan 553
cars 553
classe 553
literally 553
réalisé 553
tend 553
wrote 553
écr@@ 553
allait 552
mat@@ 552
movement 552
parties 552
passion 552
watch 552
cœur 551
dom@@ 551
modi@@ 551
oubli@@ 551
running 551
tives 551
bran@@ 550
domaine 550
gag@@ 550
ley 550
risque 550
rom@@ 550
verse 550
autom@@ 549
gènes 549
likely 549
pourrions 549
réfléch@@ 549
Pro@@ 548
result 548
journée 547
le-@@ 547
mauvais 547
relations 547
solve 547
vivent 547
bru@@ 546
bus 546
ront 546
écou@@ 546
inqui@@ 545
qualité 545
utilisant 545
Ma 544
cach@@ 544
creating 544
oh 544
theory 544
voitures 544
box 543
ects 543
sexu@@ 543
travaillé 543
vitesse 543
Ne@@ 542
faisait 542
fils 542
instant 542
network 542
produce 542
girl 541
cut 540
demand@@ 540
ement@@ 540
refl@@ 540
soleil 540
Sy@@ 539
espoir 539
expl@@ 539
expériences 539
not@@ 539
règles 539
super 539
téléphone 539
Cor@@ 538
atteindre 538
chemin 538
objet 538
réfléchir 538
designed 537
imp@@ 537
raconter 537
short 537
South 536
adi@@ 536
fabri@@ 536
ingly 536
ke@@ 536
online 536
troisième 536
age@@ 535
F 534
appli@@ 534
material 534
mét@@ 534
océan 534
sig@@ 534
generation 533
nice 533
ports 533
lég@@ 532
moral 532
prenons 532
300 531
ades 531
charge 531
confiance 531
papier 531
succès 531
ép@@ 531
anyone 530
approche 530
certaine 530
crimin@@ 530
squ@@ 530
tenir 530
Lu@@ 529
allow 529
fun 529
habitu@@ 529
kers 529
langage 529
law 529
pri@@ 529
sea 529
arri@@ 528
atic 528
development 528
discovered 528
laiss@@ 528
ns 528
organis@@ 528
suiv@@ 528
tat@@ 528
voulait 528
bottom 527
chercher 527
developing 527
modèles 527
quantité 527
atique 526
rendu 526
distance 525
fication 525
playing 525
projets 525
center 524
ented 524
esses 524
forms 524
girls 524
kid 524
religion 524
top@@ 524
ach 523
eil 523
obs@@ 523
rate 523
ton@@ 523
Facebook 522
ol 522
plant 522
proc@@ 522
Notre 521
ish@@ 521
matière 521
sembl@@ 520
utilisent 520
evolution 519
fear 519
ger@@ 519
génération 519
moved 519
pauvres 519
recherches 519
sin@@ 519
venu 519
198@@ 518
eli@@ 518
gars 518
late 518
cherch@@ 517
oo@@ 517
publi@@ 517
Ber@@ 516
assis 516
domin@@ 516
sex 516
traitement 516
– 516
permet@@ 515
sum@@ 515
ial 514
Plus 513
absolutely 513
bonnes 513
dd@@ 513
focus 513
lit 513
rôle 513
tal@@ 513
arrière 512
chan@@ 512
deep 512
human@@ 512
ole 512
produ@@ 512
talked 512
yer 512
asking 511
equ@@ 511
moments 511
parl@@ 511
soon 511
vert 511
algorith@@ 510
ational 510
duc@@ 510
durant 510
hum@@ 510
secret 510
stand 510
terrain 510
died 509
diri@@ 509
industry 509
El@@ 508
baby 508
faite 508
save 508
English 507
arrêter 507
chem@@ 507
collabor@@ 507
esc@@ 507
ever@@ 507
fri@@ 507
tendance 507
voice 507
arrê@@ 506
bras 506
bâtiment 506
aband@@ 505
capables 505
fix@@ 505
ize 505
logie 505
showed 505
bs 504
ices 504
idé@@ 504
nation 504
relationship 504
êtres 504
Cam@@ 503
aines 503
arriv@@ 503
conception 503
dark 503
ires 503
meilleurs 503
seront 503
digital 502
flu@@ 502
Ici 501
Jo@@ 501
ples 501
san@@ 501
Col@@ 500
lab 500
lin 500
lors 500
surtout 500
Rus@@ 499
encour@@ 499
entend@@ 499
optimis@@ 499
politiques 499
reasons 499
sociaux 499
sy@@ 499
crise 498
lose 498
port 498
sites 498
arg@@ 497
crée 497
enc@@ 497
isol@@ 497
resources 497
seem 497
class 496
medical 496
proj@@ 496
ained 495
gie 495
ths 495
vérité 495
24 494
break 494
hur@@ 494
monter 494
recently 494
savent 494
computers 493
constitu@@ 493
essed 493
ster 493
ure 493
visage 493
ès 493
climatique 492
ef 492
hun@@ 492
myst@@ 492
yes 492
available 491
ching 491
découvrir 491
défi 491
product 491
route 491
structures 491
Peut-être 490
aiss@@ 490
eter 490
fun@@ 490
ina 490
mod@@ 490
pourriez 490
présent@@ 490
0,000 489
beyond 489
lam@@ 489
ads 488
faits 488
pourtant 488
connected 487
disant 487
major 487
aren 486
ming 486
rue 486
tes@@ 486
truc 486
ête 486
article 485
i-@@ 485
da 484
extrêmement 484
groups 484
journey 484
lived 484
provi@@ 484
acheter 483
especially 483
gam@@ 483
modern 483
nent 483
réussi 483
thank 483
changements 482
connaissance 482
meet 482
perdu 482
pers@@ 482
So@@ 481
begin 481
eye 481
incredibly 481
iner 481
knows 481
plants 481
pouvaient 481
atten@@ 480
capital 480
ft 480
peine 480
tional 480
writing 480
3D 479
Je@@ 479
devrions 479
industrie 479
ix 479
mobile 479
10@@ 478
approach 478
impli@@ 478
lier 478
performance 478
rester 478
tab@@ 478
ennes 477
experiment 477
imagination 477
moyenne 477
on-@@ 477
puis@@ 477
By 476
appel@@ 476
ption 476
quant 476
soli@@ 476
tas@@ 476
vement 476
$ 475
Qui 475
anim@@ 475
ave 475
doc@@ 475
haven 475
ser 475
Or@@ 474
arti@@ 474
quality 474
tells 474
worth 474
élec@@ 474
hour 473
lines 473
mam@@ 473
telle 473
tend@@ 473
éléments 473
aid 472
drive 472
général 472
particip@@ 472
stor@@ 472
bigger 471
cin@@ 471
color 471
itaire 471
ky 471
lé@@ 471
strong 471
trav@@ 471
Certains 470
ably 470
basic 470
bot@@ 470
mechan@@ 470
née 470
rest@@ 470
sociétés 470
gg@@ 469
gies 469
onto 469
perfect 469
pétrole 469
terrible 469
ti 469
wish 469
Chaque 468
ards 468
direc@@ 468
sept 468
former 467
involved 467
prochaine 467
tôt 467
becomes 466
dur 466
fa@@ 466
high-@@ 466
médicaments 466
ple 466
simul@@ 466
wat@@ 466
U.@@ 465
contact 465
international 465
pictures 465
reading 465
special 465
trucs 465
charg@@ 464
développ@@ 464
evidence 464
explain 464
internet 464
putting 464
sauv@@ 464
diff@@ 463
défin@@ 463
grav@@ 463
journalis@@ 463
mé 463
progr@@ 463
représente 463
sein 463
street 463
1,@@ 462
Mal@@ 462
activité 462
améliorer 462
ax@@ 462
install@@ 462
pt 462
radio 462
raient 462
shape 462
choice 461
dly 461
effect 461
tra 461
drugs 460
erie 460
financi@@ 460
qués 460
resp@@ 460
send 460
several 460
assu@@ 459
duction 459
exemples 459
ust 459
Pendant 458
a-t-il 458
atom@@ 458
fall 458
lig@@ 458
marcher 458
pression 458
reçu 458
série 458
atiques 457
auth@@ 457
guess 457
innov@@ 457
rouge 457
similar 457
souris 457
star@@ 457
aï@@ 456
bureau 456
eaux 456
embr@@ 456
fonctionn@@ 456
humanité 456
tox@@ 456
tw@@ 456
tée 456
hydro@@ 455
potential 455
reach 455
souhai@@ 455
towards 455
eth@@ 454
période 454
signific@@ 454
det@@ 453
mauvaise 453
pens@@ 453
schools 453
sit 453
étudier 453
Bi@@ 452
Chinese 452
celles 452
distribu@@ 452
entraî@@ 452
roul@@ 452
teach 452
ately 451
back@@ 451
communities 451
concentr@@ 451
frag@@ 451
17 450
Maybe 450
date 450
deli@@ 450
ore@@ 450
predic@@ 450
région 450
tifs 450
Etats-Unis 449
dollar 449
expression 449
moyens 449
pped 449
vécu 449
chim@@ 448
commen@@ 448
droits 448
essi@@ 448
ned 448
ready 448
rules 448
scientific 448
ide@@ 447
rapide 447
Même 446
belle 446
cal 446
centr@@ 446
continuer 446
diagno@@ 446
dur@@ 446
eusement 446
existence 446
ili@@ 446
office 446
onne 446
After 445
Every 445
First 445
dead 445
drug 445
essing 445
four@@ 445
loi 445
particulièrement 445
plu@@ 445
stay 445
tically 445
camera 444
cep@@ 444
cycle 444
due 444
examples 444
sensi@@ 444
truth 444
éro@@ 444
San 443
cat@@ 443
door 443
influence 443
program@@ 443
Sud 442
noir 442
travaill@@ 441
traver@@ 441
Pl@@ 440
device 440
engag@@ 440
present 440
radi@@ 440
tex@@ 440
voc@@ 440
fil 439
largest 439
rights 439
sie 439
université 439
infrastructure 438
ok 438
retour@@ 438
sl@@ 438
tait 438
Beaucoup 437
Ge@@ 437
Twitter 437
concer@@ 437
couleur 437
rencontré 437
réaliser 437
élev@@ 437
Ne 436
Where 436
dimensions 436
mode 436
rés@@ 436
software 436
tal 436
Gen@@ 435
compos@@ 435
essay@@ 435
fascin@@ 435
illi@@ 435
person@@ 435
considé@@ 434
doute 434
nom@@ 434
notion 434
permettre 434
solar 434
sounds 434
tas 434
wall 434
biggest 433
carbon 433
ep 433
ight 433
measure 433
month 433
bonheur 432
complexe 432
endre 432
enter 432
films 432
manger 432
pick 432
pire 432
starts 432
stimul@@ 432
techniques 432
vend@@ 432
écoles 432
Imaginez 431
Mi@@ 431
alized 431
creative 431
croire 431
invent@@ 431
organisation 431
projects 431
ément 431
Lorsque 430
absolument 430
neu@@ 430
security 430
èrement 430
City 429
Of 429
Tur@@ 429
ap 429
atr@@ 429
entendre 429
road 429
stat@@ 429
zo@@ 429
ases 428
ays 428
enfin 428
pauvreté 428
success 428
walking 428
enn@@ 427
est-il 427
favorite 427
gène 427
hit 427
intégr@@ 427
stress 427
National 426
alisation 426
dre 426
ff 426
public@@ 426
quel@@ 426
record 426
results 426
vieux 426
aître 425
court 425
din@@ 425
ember 425
ited 425
showing 425
symbo@@ 425
tent@@ 425
appelée 424
del@@ 424
explor@@ 424
far@@ 424
lesquelles 424
lever 424
liste 424
lui-même 424
ods 424
pap@@ 424
poverty 424
Gre@@ 423
anybody 422
avère 422
façons 422
forest 422
formation 422
indre 422
lab@@ 422
lon@@ 422
lun@@ 422
okay 422
quelles 422
récemment 422
Don 421
anglais 421
béné@@ 421
carbone 421
laboratoire 421
massive 421
médias 421
répondre 421
ajou@@ 420
dents 420
dig@@ 420
dre@@ 420
individu@@ 420
list 420
revenir 420
sac@@ 420
totalement 420
télé@@ 420
wants 420
dge 419
dia 419
hundred 419
inclu@@ 419
pensais 419
rais@@ 419
teachers 419
uniquement 419
vot@@ 419
œu@@ 419
With 418
ayant 418
chiffres 418
develop 418
exciting 418
rép@@ 418
î@@ 418
Mu@@ 417
causes 417
extraordinaire 417
lead 417
materials 417
occu@@ 417
savais 417
Look 416
création 416
particularly 416
reven@@ 416
sciences 416
standing 416
temp@@ 416
écran 416
Me@@ 415
beau 415
certainly 415
construc@@ 415
di 415
lar@@ 415
nd 415
rég@@ 415
répondu 415
sé 415
transformer 415
ys 415
N 414
deviennent 414
hal@@ 414
langue 414
satis@@ 414
som@@ 414
surprise 414
utilisons 414
0-@@ 413
bomb@@ 413
diver@@ 413
démocratie 413
frapp@@ 413
pouss@@ 413
safe 413
West 412
atifs 412
atte@@ 412
caus@@ 412
discours 412
response 412
struc@@ 412
émer@@ 412
Who 411
bil@@ 411
content 411
oms 411
peau 411
totally 411
univers@@ 411
vraie 411
197@@ 410
activ@@ 410
audi@@ 410
avion 410
higher 410
isation 410
plantes 410
ron@@ 410
among 409
ca 409
conduc@@ 409
développé 409
glace 409
igh@@ 409
including 409
period 409
proche 409
prépar@@ 409
terror@@ 409
TV 408
abil@@ 408
ande 408
communautés 408
cultures 408
dream 408
jobs 408
nan@@ 408
obviously 408
race 408
400 407
Washington 407
ands 407
dès 407
efficace 407
extremely 407
happiness 407
iz@@ 407
mise 407
rich 407
suit 407
agriculture 406
angle 406
envoyer 406
mass 406
occup@@ 406
she@@ 406
trom@@ 406
arm@@ 405
foot 405
ides 405
inj@@ 405
priv@@ 405
scar@@ 405
sli@@ 405
total 405
To@@ 404
ams 404
huit 404
importantes 404
individuals 404
nine 404
pain@@ 404
sentiment 404
suff@@ 404
watching 404
élé@@ 404
agir 403
brill@@ 403
cellule 403
de-@@ 403
dehors 403
kes 403
liberté 403
sociale 403
speed 403
entrer 402
extraordinary 402
gues 402
Bill 401
Ri@@ 401
fine 401
object 401
objects 401
pages 401
religi@@ 401
role 401
suivante 401
tim@@ 401
viens 401
2000 400
boy 400
effort 400
fight 400
isé 400
named 400
partag@@ 400
posed 400
Dé@@ 399
Si@@ 399
accident 399
activity 399
apprentissage 399
clair 399
fem@@ 399
games 399
milli@@ 399
models 399
médecine 399
sa@@ 399
virtu@@ 399
Ou@@ 398
Regardez 398
airement 398
battre 398
conf@@ 398
crisis 398
eco@@ 398
eff@@ 398
everywhere 398
milit@@ 398
oll@@ 398
photograph@@ 398
pied 398
screen 398
spo@@ 398
Go@@ 397
cases 397
elec@@ 397
legal 397
nobody 397
prob@@ 397
commun 396
devait 396
ecting 396
emb@@ 396
onal 396
ound 396
poin@@ 396
prises 396
puissance 396
ror 396
aging 395
bres 395
dam@@ 395
dedans 395
illustr@@ 395
listen 395
logist 395
mati@@ 395
quée 395
sens@@ 395
solaire 395
trou@@ 395
crazy 394
democracy 394
designers 394
emment 394
hau@@ 394
regardé 394
révolution 394
signal 394
technique 394
capit@@ 393
dies 393
enf@@ 393
eventually 393
familles 393
forêt 393
goal 393
sang 393
Nord 392
Richard 392
allowed 392
clim@@ 392
cule 392
fre@@ 392
incroyablement 392
quar@@ 392
sam@@ 392
soir 392
traiter 392
étrang@@ 392
educ@@ 391
offici@@ 391
row 391
soins 391
H 390
auparavant 390
grew 390
ily 390
minds 390
ners 390
ries 390
shar@@ 390
student 390
vas@@ 390
North 389
brains 389
carto@@ 389
fire 389
interest 389
non@@ 389
oper@@ 389
pensée 389
premières 389
retour 389
taught 389
tree 389
électricité 389
arbres 388
buildings 388
cket 388
ere 388
experts 388
littéralement 388
parten@@ 388
protection 388
stars 388
Even 387
Ho@@ 387
cultural 387
enseign@@ 387
further 387
graphi@@ 387
longue 387
nov@@ 387
tap@@ 387
trees 387
trouvent 387
ase 386
ciel 386
connaiss@@ 386
ght@@ 386
tests 386
add 385
alités 385
assembl@@ 385
crime 385
essentially 385
finding 385
hop@@ 385
industri@@ 385
notice 385
sauver 385
t&apos; 385
vivant 385
wr@@ 385
Bar@@ 384
Ph@@ 384
conclu@@ 384
directement 384
meaning 384
peu@@ 384
plat@@ 384
réseaux 384
simples 384
aqu@@ 383
intelligent 383
jam@@ 383
loo@@ 383
medicine 383
ridi@@ 383
traditionn@@ 383
W 382
fié 382
permis 382
smart 382
studies 382
sw@@ 382
truly 382
tun@@ 382
évolu@@ 382
-là 381
merci 381
parti 381
rési@@ 381
skin 381
stri@@ 381
éti@@ 381
Today 380
affaires 380
atu@@ 380
matériaux 380
prin@@ 380
spread 380
town 380
tuer 380
ama 379
bodies 379
celui-ci 379
déc@@ 379
expect 379
prennent 379
présente 379
racon@@ 379
tool 379
workers 379
appropri@@ 378
bour@@ 378
choose 378
compl@@ 378
détru@@ 378
isent 378
memory 378
réduire 378
teacher 378
anti-@@ 377
asser 377
families 377
fit 377
génér@@ 377
logiques 377
meant 377
ous@@ 377
possibilité 377
products 377
vou@@ 377
45 376
act@@ 376
amélior@@ 376
dance 376
feu 376
lower 376
note 376
onner 376
paix 376
respect 376
shown 376
toi 376
worse 376
aspect 375
autonom@@ 375
haute 375
origine 375
trac@@ 375
wind 375
espér@@ 374
extérieur 374
ney 374
ois 374
organization 374
shot 374
sun 374
trust 374
Pe@@ 373
aper 373
gaz 373
intérêt 373
kilomètres 373
km 373
pattern 373
siez 373
travaillent 373
visual 373
étape 373
Are 372
Mus@@ 372
Paul 372
allows 372
cartes 372
distribution 372
fallait 372
faster 372
gé 372
ka 372
portable 372
pousser 372
protéger 372
self 372
series 372
sky 372
ation@@ 371
continent 371
galaxies 371
general 371
gouvernements 371
issons 371
membres 371
nég@@ 371
partage 371
payer 371
publique 371
sleep 371
wife 371
Tous 370
aurais 370
courant 370
effective 370
lies 370
mari@@ 370
revolution 370
sépar@@ 370
traditional 370
ular 370
Fr@@ 369
Most 369
follow 369
hol@@ 369
iller 369
killed 369
leadership 369
song 369
At@@ 368
arm 368
avanc@@ 368
fau@@ 368
lé 368
phones 368
équ@@ 368
aisse 367
anger 367
cru@@ 367
ext@@ 367
habit@@ 367
manque 367
movie 367
reg@@ 367
trait 367
visi@@ 367
Vi@@ 366
ador@@ 366
coût 366
ears 366
econom@@ 366
ert 366
gas 366
glob@@ 366
inspir@@ 366
lien 366
réun@@ 366
suivant 366
tension 366
tiers 366
vivons 366
Car 365
James 365
ater 365
bunch 365
choisir 365
classi@@ 365
excited 365
hel@@ 365
hypo@@ 365
morceau 365
net 365
secondes 365
sons 365
successful 365
tiv@@ 365
CO2 364
ague 364
cover 364
effets 364
fonction 364
protect 364
radic@@ 364
répon@@ 364
sité 364
souven@@ 364
supposed 364
wait 364
appréci@@ 363
ass 363
college 363
commencent 363
conse@@ 363
ghts 363
pratique 363
al-@@ 362
corruption 362
ick@@ 362
intellectu@@ 362
professionn@@ 362
somewhere 362
standard 362
suddenly 362
tel@@ 362
MS 361
aves 361
central 361
difficul@@ 361
enregistr@@ 361
gagner 361
lt 361
messages 361
mur 361
suc@@ 361
All@@ 360
Quel 360
Sur 360
Those 360
acqu@@ 360
ball 360
chois@@ 360
complicated 360
contexte 360
cortex 360
descri@@ 360
healthy 360
mang@@ 360
one-@@ 360
range 360
Min@@ 359
doctor 359
increase 359
lent 359
mourir 359
older 359
ome 359
org@@ 359
outil 359
reti@@ 359
ut@@ 359
fique 358
individus 358
math 358
objectif 358
profit 358
ressent@@ 358
révél@@ 358
serious 358
East 357
brea@@ 357
clin@@ 357
direct 357
hospital 357
larger 357
mor 357
nécessaire 357
pieces 357
sorts 357
user 357
voler 357
whe@@ 357
étonn@@ 357
aît 356
bridge 356
danger 356
effectivement 356
em 356
exist 356
fic 356
genes 356
invisible 356
kill 356
leg@@ 356
personnel 356
présentation 356
Ni@@ 355
expensive 355
interaction 355
med 355
motiv@@ 355
nécess@@ 355
robo@@ 355
above 354
condition 354
fundamental 354
income 354
lets 354
microbes 354
mit 354
rar@@ 354
to-@@ 354
MIT 353
au-delà 353
conserv@@ 353
dites 353
famili@@ 353
hou@@ 353
potenti@@ 353
see@@ 353
thousand 353
utile 353
win 353
career 352
libre 352
siè@@ 352
specific 352
vit 352
Americans 351
amp 351
discu@@ 351
ols 351
privil@@ 351
professeur 351
rire 351
ulaire 351
George 350
armes 350
capitalis@@ 350
confron@@ 350
fy 350
intéressante 350
logists 350
masse 350
ran 350
sources 350
visible 350
écouter 350
current 349
ished 349
lois 349
merveilleux 349
military 349
neurones 349
origin@@ 349
poids 349
tax@@ 349
training 349
waste 349
wit@@ 349
étoiles 349
ag 348
agri@@ 348
cell@@ 348
certainement 348
chu@@ 348
diversité 348
gré 348
lea@@ 348
unes 348
éviter 348
21@@ 347
African 347
cad@@ 347
connect 347
engineering 347
faible 347
fir@@ 347
indeed 347
inte 347
lan@@ 347
nuclear 347
porté 347
ray@@ 347
sentir 347
appareil 346
condu@@ 346
context 346
eront 346
famous 346
garder 346
ital 346
kept 346
land@@ 346
medi@@ 346
ouvert 346
photographi@@ 346
puissant 346
rées 346
sell 346
alive 345
dangerous 345
decisions 345
disons 345
dés 345
fas@@ 345
naturel 345
navig@@ 345
pping 345
usually 345
-je 344
150 344
35 344
biology 344
but@@ 344
bébé 344
citoyens 344
consci@@ 344
contin@@ 344
even@@ 344
hot 344
humanity 344
hôpital 344
insi@@ 344
ly@@ 344
morts 344
observer 344
progrès 344
repres@@ 344
rob@@ 344
réponses 344
viend@@ 344
Am@@ 343
Anderson 343
activis@@ 343
chap@@ 343
cir@@ 343
collègues 343
en-@@ 343
eté 343
fall@@ 343
gran@@ 343
issant 343
march@@ 343
peace 343
serve 343
smo@@ 343
venti@@ 343
atures 342
biologie 342
chanson 342
collective 342
eling 342
fré@@ 342
func@@ 342
graphique 342
perception 342
tél@@ 342
venue 342
wer@@ 342
allais 341
coin 341
concerne 341
discus@@ 341
erai 341
finir 341
fossi@@ 341
ful@@ 341
médi@@ 341
mée 341
skills 341
t-on 341
éli@@ 341
196@@ 340
Web 340
acting 340
arts 340
chev@@ 340
chron@@ 340
concevoir 340
cultu@@ 340
décisions 340
entation 340
lap@@ 340
seconds 340
sing@@ 340
sses 340
tiens 340
electricity 339
ga@@ 339
manipul@@ 339
ordre 339
original 339
recognize 339
toire 339
tourner 339
treat 339
venant 339
HIV 338
Michael 338
application 338
art@@ 338
dessous 338
diction 338
dy@@ 338
décou@@ 338
indic@@ 338
ken 338
moi-même 338
ose 338
quit@@ 338
region 338
search 338
sn@@ 338
thers 338
touch 338
aining 337
argument 337
beings 337
corpor@@ 337
critical 337
explore 337
of@@ 337
ounded 337
print 337
progress 337
style 337
Pri@@ 336
deven@@ 336
dra@@ 336
mondial 336
opportunité 336
patterns 336
potentiel 336
press 336
private 336
provo@@ 336
somehow 336
treatment 336
Einstein 335
Quelle 335
actual 335
ange 335
carrière 335
doctors 335
frustr@@ 335
graph@@ 335
invention 335
lat@@ 335
mile 335
mondi@@ 335
musici@@ 335
nel 335
rise 335
tient 335
via 335
15@@ 334
Big 334
N&apos; 334
University 334
driving 334
hér@@ 334
précé@@ 334
pun@@ 334
transformation 334
utilisation 334
valeurs 334
voient 334
written 334
zz@@ 334
aison 333
becoming 333
celle-ci 333
chef 333
collaboration 333
document@@ 333
eless 333
gence 333
iers 333
kin@@ 333
lou@@ 333
organ@@ 333
rêve 333
sex@@ 333
smaller 333
écl@@ 333
cs 332
ent-ils 332
loved 332
nés 332
oblig@@ 332
physics 332
provide 332
ques@@ 332
ten 332
weight 332
Ap@@ 331
aliser 331
bacteria 331
bizarre 331
diversity 331
envers 331
notes 331
pourrais 331
remarqu@@ 331
traj@@ 331
wards 331
anymore 330
citizens 330
destin@@ 330
efforts 330
ere@@ 330
gouvern@@ 330
illu@@ 330
ized 330
listening 330
manu@@ 330
moderne 330
nam@@ 330
tum@@ 330
upon 330
Là 329
S&apos; 329
conver@@ 329
discussion 329
faces 329
freedom 329
informatique 329
isons 329
issez 329
opération 329
pris@@ 329
revenu 329
star 329
vide 329
Kenya 328
Ré@@ 328
Times 328
aspects 328
génial 328
importants 328
riches 328
thro@@ 328
well-@@ 328
aces 327
amener 327
batt@@ 327
coû@@ 327
durable 327
fourn@@ 327
gn@@ 327
hors 327
lions 327
oph@@ 327
pièces 327
procé@@ 327
tran@@ 327
éni@@ 327
diseases 326
ending 326
ese 326
faux 326
hyper@@ 326
passent 326
tly 326
yeah 326
û@@ 326
U 325
Which 325
anywhere 325
avis 325
conc@@ 325
down@@ 325
dram@@ 325
fabriquer 325
hear@@ 325
lights 325
mathématiques 325
médecin 325
please 325
poisson 325
scre@@ 325
sed 325
vic@@ 325
z-@@ 325
Ok 324
Où 324
astronom@@ 324
conduit 324
dea@@ 324
ging 324
impro@@ 324
jet@@ 324
lieux 324
passionn@@ 324
sexe 324
suivi 324
&apos;@@ 323
2008 323
Imagine 323
adore 323
connection 323
excit@@ 323
weren 323
Iran 322
Q@@ 322
alli@@ 322
budget 322
consider 322
créativité 322
dée 322
governments 322
imag@@ 322
permettent 322
sun@@ 322
term 322
wonder 322
He@@ 321
War 321
beauté 321
bre 321
bus@@ 321
cha@@ 321
chent 321
dépend@@ 321
gent 321
greatest 321
policy 321
rant 321
réc@@ 321
Lo@@ 320
Ser@@ 320
allée 320
atteint 320
distinc@@ 320
integr@@ 320
intervie@@ 320
kil@@ 320
majorité 320
regul@@ 320
rup@@ 320
talks 320
Sp@@ 319
aches 319
acks 319
afric@@ 319
américain 319
campagne 319
exist@@ 319
intu@@ 319
océans 319
preuve 319
three-@@ 319
waiting 319
wea@@ 319
ène 319
éc@@ 319
Ste@@ 318
apo@@ 318
asse@@ 318
civi@@ 318
désormais 318
essaie 318
fondament@@ 318
investiss@@ 318
labor@@ 318
mid@@ 318
minim@@ 318
mécan@@ 318
neurons 318
price 318
Like 317
atti@@ 317
bing 317
clearly 317
ged 317
hé@@ 317
lancé 317
trial 317
voulu 317
ège 317
écriv@@ 317
Los 316
actu@@ 316
ails 316
déplac@@ 316
familiar 316
gotten 316
pair 316
pén@@ 316
speci@@ 316
tom@@ 316
zero 316
beauty 315
challenges 315
clu@@ 315
costs 315
designer 315
décision 315
grandi 315
ible 315
omb@@ 315
revenus 315
vre 315
75 314
consommation 314
earlier 314
explic@@ 314
head@@ 314
inspiration 314
lands 314
marchés 314
politics 314
quotidi@@ 314
rir 314
spon@@ 314
store 314
stre@@ 314
travel 314
atory 313
centi@@ 313
conflict 313
contrôler 313
divis@@ 313
dix 313
financial 313
infin@@ 313
liber@@ 313
magazine 313
mâ@@ 313
pull 313
recogni@@ 313
shor@@ 313
sm@@ 313
stu@@ 313
tiennent 313
ancy 312
attendre 312
aware 312
découverte 312
floor 312
himself 312
ishing 312
issement 312
pel@@ 312
phrase 312
recor@@ 312
ssi@@ 312
teaching 312
tered 312
two-@@ 312
étique 312
Man@@ 311
X 311
bord 311
clients 311
devraient 311
expected 311
ink 311
itable 311
mus@@ 311
médecins 311
programmes 311
puissent 311
suppose 311
sympt@@ 311
throughout 311
wal@@ 311
wel@@ 311
étrange 311
Some@@ 310
estim@@ 310
explique 310
fav@@ 310
forth 310
gratu@@ 310
hi 310
Another 309
Ben@@ 309
Ca 309
Fin@@ 309
Har@@ 309
NASA 309
Sol@@ 309
acts 309
actuellement 309
amment 309
biom@@ 309
camp 309
decade 309
explorer 309
facilement 309
gram@@ 309
ills 309
iti@@ 309
iting 309
scientist 309
values 309
vidéos 309
Combien 308
Sou@@ 308
Wi@@ 308
ace@@ 308
ank 308
architec@@ 308
cold 308
complexes 308
decades 308
demonstr@@ 308
depend@@ 308
devenue 308
dit@@ 308
fiques 308
greater 308
lesquels 308
meters 308
mettent 308
nations 308
oth 308
plastic 308
slow 308
sus 308
sym@@ 308
thern 308
tin 308
-year-old 307
Do@@ 307
Mil@@ 307
ac 307
américaine 307
bilité 307
complete 307
essayons 307
essentiellement 307
levels 307
noire 307
numéro 307
poissons 307
practice 307
remarkable 307
subst@@ 307
airs 306
commercial 306
lanc@@ 306
liv@@ 306
érieure 306
évidemment 306
applications 305
babies 305
catastr@@ 305
entièrement 305
faisaient 305
isse 305
physici@@ 305
pouvions 305
rencontr@@ 305
tomber 305
voulaient 305
éloign@@ 305
œil 305
2010 304
Américains 304
bébés 304
celebr@@ 304
decision 304
demi 304
difficiles 304
empl@@ 304
escope 304
habitude 304
helped 304
immediately 304
onné 304
surviv@@ 304
vit@@ 304
Charles 303
Francisco 303
aiment 303
auraient 303
ections 303
ek 303
ham@@ 303
ope 303
positif 303
susp@@ 303
tradition 303
Em@@ 302
Harvard 302
compréhension 302
function 302
interface 302
meeting 302
plas@@ 302
positions 302
propor@@ 302
van@@ 302
Al 301
aged 301
commerci@@ 301
dar@@ 301
flow 301
fou@@ 301
funny 301
genetic 301
identité 301
imaginez 301
instrument 301
itive 301
lack 301
meilleures 301
menti@@ 301
montrent 301
mémoire 301
ordin@@ 301
pressure 301
réus@@ 301
sign@@ 301
Any@@ 300
Personne 300
ablement 300
affir@@ 300
appeler 300
besoins 300
chair 300
dog 300
er-@@ 300
gle 300
ha 300
invented 300
legs 300
neuf 300
quali@@ 300
quartier 300
sch@@ 300
situations 300
urb@@ 300
Steve 299
aps 299
artiste 299
dure 299
gers 299
ght 299
iles 299
pom@@ 299
seu@@ 299
shared 299
syst@@ 299
tivité 299
walked 299
website 299
Hey 298
London 298
Très 298
by@@ 298
ense 298
ern@@ 298
expli@@ 298
horiz@@ 298
ple@@ 298
satellite 298
sign 298
sustainable 298
track 298
transport 298
zing 298
œuvre 298
accél@@ 297
after@@ 297
blan@@ 297
compagnie 297
limites 297
mouvements 297
ond 297
ow 297
recycl@@ 297
silence 297
tech 297
trouble 297
verrez 297
600 296
Canada 296
From 296
Res@@ 296
Y 296
alternative 296
choices 296
clairement 296
effec@@ 296
favor@@ 296
foot@@ 296
forte 296
grade 296
lancer 296
magnifique 296
male 296
présenter 296
regardant 296
soi 296
sugges@@ 296
Your 295
asse 295
colleagues 295
conséquences 295
following 295
laws 295
perdre 295
prêt 295
related 295
requ@@ 295
subject 295
séri@@ 295
vres 295
véri@@ 295
wee@@ 295
étudi@@ 295
Sec@@ 294
Sim@@ 294
ahead 294
armée 294
concep@@ 294
cyber@@ 294
except 294
ges@@ 294
parent 294
plong@@ 294
pp@@ 294
section 294
swe@@ 294
tivity 294
work@@ 294
évi@@ 294
appel 293
arrivent 293
artist 293
connaissez 293
double 293
gay 293
immédiatement 293
mir@@ 293
phénomène 293
programs 293
sommet 293
spectac@@ 293
t-elle 293
therefore 293
understood 293
auto-@@ 292
berg 292
crow@@ 292
eas@@ 292
feed 292
pho@@ 292
pieds 292
prati@@ 292
raise 292
rare 292
recent 292
rejo@@ 292
99 291
Ad@@ 291
Chicago 291
Life 291
appelons 291
apporter 291
bateau 291
cardi@@ 291
démo@@ 291
flying 291
isant 291
lation 291
plastique 291
rassembl@@ 291
sper@@ 291
v 291
ération 291
V 290
assurer 290
balance 290
colon@@ 290
eux-mêmes 290
fantastic 290
logi@@ 290
magic 290
milliard 290
numérique 290
oiseaux 290
planètes 290
seuls 290
strange 290
useful 290
Des@@ 289
agree 289
alization 289
creativity 289
decide 289
départ 289
génétique 289
low-@@ 289
mit@@ 289
ok@@ 289
parlent 289
regar@@ 289
slide 289
traits 289
évalu@@ 289
Ah 288
Ke@@ 288
Man 288
Por@@ 288
accompl@@ 288
affaire 288
bactéries 288
bleu 288
champ 288
chau@@ 288
conversations 288
dau@@ 288
devais 288
exis@@ 288
female 288
leader 288
mér@@ 288
near 288
planets 288
stoc@@ 288
survive 288
vote 288
whose 288
His 287
Lin@@ 287
absor@@ 287
agne 287
bits 287
blanc 287
bois 287
chant 287
clean 287
clé 287
essence 287
honn@@ 287
ignor@@ 287
lue 287
ops 287
paid 287
placer 287
shoc@@ 287
Cet 286
Laissez-moi 286
chances 286
destro@@ 286
efficient 286
grad@@ 286
mesurer 286
obvious 286
oi 286
prêts 286
regard@@ 286
rentr@@ 286
square 286
stru@@ 286
surr@@ 286
sû@@ 286
terr@@ 286
tol@@ 286
various 286
émotions 286
Great 285
appear 285
bble 285
daughter 285
draw 285
effects 285
environmental 285
inspired 285
mation 285
montr@@ 285
organizations 285
posi@@ 285
risques 285
tels 285
wed 285
ath 284
au-dessus 284
aveu@@ 284
différences 284
expériment@@ 284
flex@@ 284
instance 284
instruments 284
mi 284
moteur 284
occasion 284
ough 284
profondément 284
récom@@ 284
sélec@@ 284
´ 284
Cependant 283
agent 283
correspon@@ 283
dying 283
entrepreneurs 283
ep@@ 283
essaye 283
intéresse 283
markets 283
match 283
mathémati@@ 283
parlons 283
ref@@ 283
secteur 283
symp@@ 283
BG 282
Many 282
arry 282
atmosphère 282
contraire 282
conçu 282
disaient 282
naturel@@ 282
played 282
rie 282
rot@@ 282
sauf 282
vac@@ 282
blement 281
compli@@ 281
contenu 281
couleurs 281
déclar@@ 281
détermin@@ 281
engage 281
fiction 281
mun@@ 281
ons-@@ 281
particules 281
path 281
péri@@ 281
restaurant 281
streets 281
yl@@ 281
élèves 281
équi@@ 281
below 280
boîte 280
broken 280
enormous 280
eue 280
experiments 280
long@@ 280
lu 280
température 280
univer@@ 280
worst 280
çant 280
Ab@@ 279
Instead 279
although 279
amb@@ 279
caméra 279
chang@@ 279
cks 279
dinosau@@ 279
donnent 279
entière 279
maisons 279
peuple 279
pir@@ 279
pollution 279
raconte 279
riche 279
speaking 279
sérieux 279
te-@@ 279
turning 279
wealth 279
willing 279
égalité 279
Boston 278
Du@@ 278
Two 278
Uni@@ 278
agre@@ 278
apped 278
coeur 278
connaissons 278
core 278
coup@@ 278
dad 278
demo@@ 278
email 278
fuel 278
lit@@ 278
lut@@ 278
pig@@ 278
réaction 278
trag@@ 278
trouver@@ 278
urban 278
wan@@ 278
1.@@ 277
Chil@@ 277
France 277
Son 277
Thomas 277
arbre 277
biological 277
cry@@ 277
envie 277
eries 277
gy@@ 277
horrible 277
malgré 277
ort 277
plans 277
sat 277
tiss@@ 277
21 276
Indi@@ 276
Robert 276
américains 276
ball@@ 276
canc@@ 276
cents 276
commun@@ 276
conclusion 276
consom@@ 276
courir 276
destruction 276
humaines 276
inventé 276
invol@@ 276
mes@@ 276
relationships 276
ël 276
Cl@@ 275
Sal@@ 275
Toutes 275
atically 275
batter@@ 275
curr@@ 275
dos 275
eding 275
joue 275
magni@@ 275
mobi@@ 275
mont@@ 275
mul@@ 275
slightly 275
text 275
çons 275
Cu@@ 274
accu@@ 274
answers 274
envoyé 274
event 274
fonctionner 274
hot@@ 274
logue 274
mom 274
principe 274
rely 274
responsabilité 274
seraient 274
thetic 274
ède 274
échou@@ 274
2007 273
Nos 273
artifici@@ 273
brû@@ 273
combat 273
fying 273
lignes 273
limit@@ 273
nur@@ 273
ore 273
possibly 273
significant 273
stream 273
trop@@ 273
was@@ 273
PM 272
abeilles 272
aus@@ 272
centage 272
graphie 272
ises 272
sand@@ 272
yons 272
èle 272
Dan 271
adultes 271
collection 271
eled 271
fes@@ 271
fond@@ 271
jug@@ 271
les@@ 271
nez 271
orb@@ 271
remar@@ 271
surprising 271
techno@@ 271
tors 271
vendre 271
véritable 271
17@@ 270
Arab@@ 270
Bri@@ 270
Gol@@ 270
cerveaux 270
directly 270
emploi 270
engagement 270
fli@@ 270
gradu@@ 270
mostly 270
nord 270
rappelle 270
societies 270
stopped 270
taient 270
temperature 270
00 269
200@@ 269
Angeles 269
Fi@@ 269
Think 269
Ven@@ 269
accumul@@ 269
bar 269
communicate 269
enseignants 269
garçon 269
improve 269
las@@ 269
liz@@ 269
logiciel 269
là-@@ 269
monte 269
networks 269
num@@ 269
opér@@ 269
oul@@ 269
sis 269
transport@@ 269
2009 268
Depuis 268
Isra@@ 268
Western 268
address 268
anyway 268
atch 268
capacity 268
dir 268
isés 268
laisse 268
mené 268
mp 268
naissance 268
nucléaire 268
organisations 268
organismes 268
prend@@ 268
remarqué 268
ri 268
spécialis@@ 268
station 268
Pi@@ 267
appr@@ 267
ario 267
critique 267
diminu@@ 267
diplô@@ 267
ennu@@ 267
iné 267
net@@ 267
organiz@@ 267
passait 267
pouvons-nous 267
pressed 267
preuves 267
reço@@ 267
savait 267
souviens 267
sujets 267
television 267
transition 267
chemical 266
chinois 266
comfortable 266
compétences 266
descend@@ 266
douleur 266
erreur 266
feels 266
forget 266
helping 266
imprim@@ 266
itaires 266
oned 266
published 266
rece@@ 266
rues 266
soud@@ 266
tar@@ 266
tivement 266
vér@@ 266
énormes 266
étudiant 266
Ger@@ 265
affec@@ 265
ank@@ 265
appe@@ 265
atrice 265
augment@@ 265
ban 265
boys 265
consu@@ 265
cuisine 265
dist@@ 265
dépl@@ 265
détails 265
gene 265
institu@@ 265
ièmement 265
mil@@ 265
plaisir 265
rai 265
rain 265
spiritu@@ 265
élément 265
Ros@@ 264
Second 264
achiev@@ 264
acked 264
analo@@ 264
atmosphere 264
bringing 264
closer 264
commit@@ 264
défis 264
envoy@@ 264
inno@@ 264
popular 264
populations 264
regi@@ 264
regre@@ 264
rier 264
rock 264
sai@@ 264
stick 264
termin@@ 264
électrique 264
adv@@ 263
behavi@@ 263
bâtiments 263
complexité 263
connaissent 263
cure 263
diag@@ 263
doub@@ 263
drop 263
emotional 263
faisais 263
fonds 263
marketing 263
ought 263
oxy@@ 263
phase 263
prochaines 263
produisent 263
purpose 263
reve@@ 263
rê@@ 263
states 263
volume 263
wood 263
Londres 262
agé 262
bone 262
chambre 262
chercheurs 262
compu@@ 262
cross@@ 262
ela 262
financ@@ 262
held 262
high@@ 262
laissé 262
ority 262
ound@@ 262
ouvrir 262
ported 262
ss 262
stop@@ 262
tableau 262
trice 262
vibr@@ 262
vis 262
Bal@@ 261
alo@@ 261
and-@@ 261
appu@@ 261
ationn@@ 261
calls 261
choisi 261
concentrer 261
définition 261
démar@@ 261
espaces 261
evolved 261
exploration 261
noticed 261
park 261
pleine 261
rempl@@ 261
shel@@ 261
shi@@ 261
tune 261
âg@@ 261
étudié 261
Street 260
YouTube 260
antibio@@ 260
astr@@ 260
augmenter 260
bees 260
birth 260
civil 260
degrees 260
derniers 260
enthousias@@ 260
ero@@ 260
experiences 260
hasard 260
heat 260
indépend@@ 260
ll@@ 260
médicament 260
nement 260
oeu@@ 260
orig@@ 260
respon@@ 260
sharing 260
sionn@@ 260
stem 260
trib@@ 260
tâche 260
èmes 260
ètes 260
élevé 260
Chris@@ 259
Wor@@ 259
apart 259
aviez 259
believ@@ 259
bly 259
bouger 259
dizaines 259
gâ@@ 259
lying 259
molécules 259
occident@@ 259
opinion 259
push@@ 259
reach@@ 259
responsibility 259
sul@@ 259
thy 259
Dis@@ 258
Gal@@ 258
Ital@@ 258
Mes 258
achieve 258
chaîne 258
discover 258
eating 258
est-à-dire 258
fron@@ 258
mea@@ 258
nearly 258
pleu@@ 258
pounds 258
reas@@ 258
spir@@ 258
sud 258
ve-@@ 258
1,000 257
5,000 257
California 257
Darwin 257
Is@@ 257
Oc@@ 257
ags 257
atri@@ 257
attack 257
conque 257
conventi@@ 257
conç@@ 257
courage 257
cérébr@@ 257
gérer 257
istre 257
option 257
pass 257
passed 257
ral 257
reduce 257
rooms 257
shift 257
surveillance 257
émotionn@@ 257
Sch@@ 256
affi@@ 256
aven@@ 256
bought 256
cally 256
chimiques 256
célèbre 256
devices 256
devoir 256
gen 256
géné@@ 256
ographi@@ 256
ology 256
orches@@ 256
prepar@@ 256
précis 256
push 256
sorti 256
ush@@ 256
vin 256
Pakistan 255
amus@@ 255
easily 255
ees 255
fal@@ 255
identity 255
ind 255
introdu@@ 255
principal 255
quick 255
regard 255
servir 255
summer 255
usage 255
volu@@ 255
differently 254
matériel 254
mén@@ 254
méthode 254
pensait 254
philosoph@@ 254
produced 254
reconn@@ 254
régions 254
some@@ 254
task 254
trade 254
J 253
La@@ 253
accro@@ 253
aie 253
conference 253
expert 253
gagné 253
grandis@@ 253
hole 253
join 253
knowing 253
micro-@@ 253
nation@@ 253
od 253
ologie 253
party 253
poly@@ 253
spea@@ 253
supply 253
twice 253
New@@ 252
VIH 252
ayons 252
creates 252
gin@@ 252
habitants 252
increas@@ 252
members 252
membre 252
ord@@ 252
pai@@ 252
ral@@ 252
ush 252
Paris 251
appl@@ 251
ba 251
birds 251
carry 251
let@@ 251
mark@@ 251
mel@@ 251
naturelle 251
peti@@ 251
stic 251
sures 251
séqu@@ 251
truc@@ 251
19 250
Iraq 250
afraid 250
aming 250
artistes 250
class@@ 250
devenus 250
diam@@ 250
dons 250
débat 250
enting 250
incroyables 250
journal 250
occuper 250
onnement 250
pouv@@ 250
return 250
rule 250
subj@@ 250
transpar@@ 250
vice 250
worry 250
ètre 250
éré@@ 250
Take 249
articles 249
circul@@ 249
ids 249
ined 249
possibilités 249
rythme 249
résol@@ 249
shares 249
speech 249
trem@@ 249
venait 249
venus 249
échantill@@ 249
éth@@ 249
Adam 248
Afric@@ 248
Votre 248
aud@@ 248
basis 248
co-@@ 248
finance 248
glass 248
lève 248
missing 248
perform@@ 248
phon@@ 248
photograph 248
rêves 248
surgery 248
tie 248
timate 248
télévision 248
ution 248
Dr. 247
Fl@@ 247
Jer@@ 247
aill@@ 247
ancient 247
archit@@ 247
arriver@@ 247
aver@@ 247
chien 247
cis@@ 247
commençons 247
differences 247
doubl@@ 247
exact 247
focused 247
lau@@ 247
laun@@ 247
liens 247
mères 247
polici@@ 247
regardons 247
rencontrer 247
tées 247
vention 247
émo@@ 247
Paci@@ 246
Pu@@ 246
Ru@@ 246
abstr@@ 246
allés 246
anci@@ 246
assur@@ 246
bes@@ 246
bure@@ 246
degree 246
dreams 246
dynam@@ 246
enci@@ 246
extra 246
law@@ 246
liter@@ 246
neur@@ 246
sculp@@ 246
second@@ 246
thr@@ 246
vering 246
Californie 245
Encore 245
Nigeria 245
aimer@@ 245
ancien 245
augmente 245
blind 245
boat 245
candi@@ 245
connaître 245
cut@@ 245
déchets 245
fascinating 245
libr@@ 245
nant 245
oxygène 245
pile 245
quées 245
rain@@ 245
statistiques 245
tries 245
verre 245
violent 245
émissions 245
Premi@@ 244
Willi@@ 244
acte 244
arrivée 244
colère 244
connais 244
côte 244
deman@@ 244
dil@@ 244
garde 244
hearing 244
highly 244
iPhone 244
immense 244
improvis@@ 244
maths 244
mauvaises 244
précis@@ 244
q@@ 244
récup@@ 244
signifi@@ 244
straight 244
studying 244
trou 244
vol 244
zen 244
Aus@@ 243
Université 243
accoun@@ 243
acier 243
concepts 243
conflit 243
dant 243
dence 243
ez-@@ 243
facil@@ 243
igne 243
instinc@@ 243
manières 243
mill@@ 243
post-@@ 243
profond 243
seemed 243
sick 243
tué 243
télé 243
émati@@ 243
érée 243
10,000 242
Christ@@ 242
Deux 242
GPS 242
calcul 242
complexity 242
conduire 242
crati@@ 242
ele@@ 242
fonctionnent 242
insectes 242
lif@@ 242
marine 242
mix@@ 242
strong@@ 242
suffis@@ 242
thu@@ 242
villages 242
195@@ 241
ache 241
antly 241
chés 241
communiquer 241
compon@@ 241
definition 241
décennies 241
elle-même 241
influ@@ 241
ition 241
médic@@ 241
oli@@ 241
parfait 241
possibility 241
rel 241
éner@@ 241
card 240
chement 240
expos@@ 240
fam@@ 240
gal@@ 240
garçons 240
ign 240
molecules 240
muscle 240
piano 240
quels 240
rencontre 240
scol@@ 240
tempor@@ 240
tester 240
vel@@ 240
window 240
évident 240
On@@ 239
Rob@@ 239
Wal@@ 239
auquel 239
café 239
commerce 239
consciousness 239
corner 239
ective 239
ent-@@ 239
fantastique 239
ior 239
ja@@ 239
larg@@ 239
manufactu@@ 239
oir 239
sel 239
soign@@ 239
Mat@@ 238
Parfois 238
alim@@ 238
alle@@ 238
ami@@ 238
anony@@ 238
bom@@ 238
emer@@ 238
influenc@@ 238
maxim@@ 238
passant 238
tours 238
tradu@@ 238
An 237
Char@@ 237
Peter 237
Vir@@ 237
alize 237
amen@@ 237
appareils 237
authenti@@ 237
chacune 237
dans@@ 237
earth 237
een 237
itent 237
ium 237
manif@@ 237
nous-mêmes 237
récol@@ 237
tan@@ 237
travaillons 237
2,000 236
As@@ 236
Avant 236
Sel@@ 236
accor@@ 236
amène 236
analyse 236
angl@@ 236
cent@@ 236
consum@@ 236
custom@@ 236
hard@@ 236
hea@@ 236
opes 236
oxygen 236
président 236
restaur@@ 236
scr@@ 236
sour@@ 236
telles 236
tively 236
évolué 236
aj@@ 235
capacités 235
connexion 235
dangereux 235
dési@@ 235
ence@@ 235
histor@@ 235
ious 235
proches 235
puisque 235
raised 235
ritu@@ 235
spending 235
2,@@ 234
CE@@ 234
Indian 234
Obama 234
Sar@@ 234
ado@@ 234
allo@@ 234
augmentation 234
bloc@@ 234
bruit 234
connections 234
correc@@ 234
dom 234
excep@@ 234
institution 234
intervention 234
jambes 234
monit@@ 234
prime 234
prés@@ 234
ressembl@@ 234
toucher 234
Asie 233
Scot@@ 233
auto@@ 233
blu@@ 233
character 233
emplois 233
exer@@ 233
forever 233
forment 233
genome 233
giant 233
hidden 233
his@@ 233
infl@@ 233
mas 233
mètre 233
neighborhood 233
none 233
passage 233
recru@@ 233
report 233
river 233
tural 233
van 233
visit 233
zéro 233
22 232
Actually 232
Global 232
Rem@@ 232
Swe@@ 232
ancer 232
bie 232
comment@@ 232
exponenti@@ 232
failure 232
lucky 232
mène 232
necessary 232
ographic 232
orer 232
remarquable 232
responsable 232
vrai@@ 232
Dur@@ 231
Ver@@ 231
accessible 231
ak 231
apply 231
avance 231
bility 231
cab@@ 231
cadre 231
créatures 231
différemment 231
décrit 231
easier 231
edge 231
fou 231
génome 231
interactions 231
investment 231
istic 231
itting 231
ket 231
levé 231
matters 231
mountain 231
noirs 231
opportunities 231
ox@@ 231
principes 231
productive 231
profonde 231
prototype 231
wers 231
AR@@ 230
Good 230
ON@@ 230
avez-vous 230
aî@@ 230
break@@ 230
brings 230
creatures 230
dép@@ 230
eraient 230
fix 230
gry 230
helps 230
héros 230
ica 230
interact 230
microscope 230
operation 230
opposite 230
rej@@ 230
repe@@ 230
resol@@ 230
shop 230
écar@@ 230
échec 230
23 229
II 229
Ob@@ 229
Tor@@ 229
amie 229
avi@@ 229
bird 229
check 229
classique 229
cognitive 229
compare 229
déplacer 229
finished 229
intr@@ 229
io@@ 229
ira 229
leading 229
mons 229
open@@ 229
quence 229
quête 229
scen@@ 229
sible 229
sociales 229
tenu 229
65 228
Bas@@ 228
Cal@@ 228
Center 228
Haw@@ 228
benefits 228
compliqué 228
confi@@ 228
despite 228
empê@@ 228
facts 228
formidable 228
iling 228
nar@@ 228
observe 228
plaît 228
studio 228
enfance 227
erons 227
extreme 227
fice 227
fusion 227
hair 227
in-@@ 227
invest@@ 227
ky@@ 227
mariage 227
neighb@@ 227
paradig@@ 227
parfaitement 227
perc@@ 227
pit@@ 227
propos@@ 227
rappel@@ 227
religious 227
tremendous 227
économiques 227
étiez 227
British 226
Martin 226
Once 226
classes 226
conv@@ 226
equal 226
erez 226
erreurs 226
est-@@ 226
farmers 226
istant 226
options 226
persu@@ 226
recher@@ 226
stic@@ 226
téléphones 226
ultimately 226
zer@@ 226
Antarc@@ 225
Ki@@ 225
actuelle 225
aint 225
alimentaire 225
allaient 225
ang 225
bale@@ 225
bin@@ 225
cip@@ 225
concernant 225
considérer 225
covered 225
diab@@ 225
domaines 225
dépend 225
entrée 225
histori@@ 225
impressionn@@ 225
niveaux 225
offre 225
particles 225
phenomenon 225
rels 225
riez 225
réci@@ 225
sold 225
spaces 225
titre 225
trained 225
trouvez 225
Brazil 224
Valley 224
We@@ 224
ait-il 224
ajouter 224
altern@@ 224
atoire 224
attribu@@ 224
cratic 224
emo@@ 224
empêcher 224
encourage 224
esser 224
fallu 224
flux 224
gender 224
identifier 224
landscape 224
ophe 224
paraly@@ 224
saving 224
suffisamment 224
teen@@ 224
visite 224
2005 223
Bur@@ 223
European 223
Hou@@ 223
Inter@@ 223
capture 223
cham@@ 223
coffee 223
conscious 223
consul@@ 223
contro@@ 223
describe 223
diplom@@ 223
div@@ 223
eill@@ 223
employés 223
froid 223
gan@@ 223
investissement 223
medic@@ 223
obtenez 223
stupi@@ 223
Again 222
Brésil 222
John@@ 222
accur@@ 222
afford 222
aries 222
aur@@ 222
avancer 222
caract@@ 222
chers 222
curios@@ 222
dirait 222
découv@@ 222
emotions 222
entour@@ 222
fournir 222
genti@@ 222
humi@@ 222
iness 222
loss 222
lutte 222
meur@@ 222
motivation 222
perte 222
portent 222
probable 222
puissante 222
pure 222
sif 222
similaire 222
tir 222
virtual 222
épar@@ 222
Middle 221
abo@@ 221
biologique 221
cente 221
correct 221
cot@@ 221
davantage 221
débu@@ 221
efficaces 221
entirely 221
eral 221
flot@@ 221
industrial 221
ingénieurs 221
limited 221
mouth 221
organisms 221
puts 221
rang@@ 221
responsible 221
riv@@ 221
s-je 221
stratégie 221
survivre 221
tue 221
équilibre 221
Apple 220
Islam 220
Union 220
agers 220
ani@@ 220
artists 220
biolog@@ 220
bli@@ 220
catch 220
collap@@ 220
décider 220
evol@@ 220
fighting 220
fle@@ 220
ient 220
illusion 220
importantly 220
ini@@ 220
muscles 220
nee@@ 220
negative 220
nourr@@ 220
oes 220
opportunités 220
possibles 220
princip@@ 220
roll 220
rural 220
rédu@@ 220
sely 220
spi@@ 220
tez-moi 220
throw 220
victimes 220
éte@@ 220
.com 219
Sau@@ 219
apping 219
attemp@@ 219
bert 219
comportements 219
curi@@ 219
dynamique 219
escent 219
fabrication 219
figured 219
forêts 219
hô@@ 219
kee@@ 219
lav@@ 219
mortalité 219
pauvre 219
poss@@ 219
prochain 219
promise 219
sert 219
stade 219
suffering 219
supplément@@ 219
tations 219
tian 219
tible 219
tionnaire 219
ury 219
vieill@@ 219
wild 219
27 218
However 218
Jan@@ 218
Thanks 218
anni@@ 218
convaincre 218
essenti@@ 218
malaria 218
obtenu 218
opened 218
painting 218
presse 218
prosp@@ 218
ressemblent 218
stuck 218
tissue 218
vast 218
Sometimes 217
amin@@ 217
appreci@@ 217
changent 217
coûte 217
electron@@ 217
exclu@@ 217
fe 217
ki@@ 217
moment-là 217
necessarily 217
nulle 217
ouver@@ 217
perman@@ 217
predict 217
rappeler 217
ysi@@ 217
épou@@ 217
00@@ 216
2011 216
Bab@@ 216
Over 216
aissent 216
atoires 216
benefit 216
billions 216
care@@ 216
cherche 216
convainc@@ 216
deeply 216
determin@@ 216
efs 216
everyday 216
exposition 216
fasse 216
frère 216
fur@@ 216
heads 216
holding 216
immeu@@ 216
innovations 216
investig@@ 216
lettres 216
measu@@ 216
orph@@ 216
planning 216
soutien 216
volont@@ 216
walls 216
yed 216
Ben 215
Juli@@ 215
King 215
abilities 215
anxi@@ 215
apprend 215
arian 215
barri@@ 215
broad@@ 215
dol@@ 215
fairly 215
fémin@@ 215
géni@@ 215
intern@@ 215
lesson 215
mener 215
professeurs 215
prop@@ 215
radical 215
sugg@@ 215
tier 215
voulions 215
xim@@ 215
Art 214
Asia 214
Gi@@ 214
Pouv@@ 214
achet@@ 214
allu@@ 214
anding 214
auteur 214
chauff@@ 214
communications 214
connaissances 214
danse 214
dirais 214
discovery 214
documents 214
drôle 214
esthé@@ 214
foc@@ 214
graph 214
habitat 214
husband 214
intro@@ 214
location 214
magie 214
murs 214
parlait 214
partment 214
principalement 214
publié 214
putation 214
read@@ 214
reconnaître 214
relle 214
retourner 214
rich@@ 214
roy@@ 214
sach@@ 214
sensation 214
sphere 214
succe@@ 214
tonnes 214
utilisés 214
-up 213
AIDS 213
Ed@@ 213
Her@@ 213
Japan 213
Tit@@ 213
ast@@ 213
bientôt 213
brev@@ 213
change@@ 213
conflits 213
dimensional 213
effici@@ 213
events 213
flu 213
forced 213
kid@@ 213
mique 213
moindre 213
morceaux 213
mur@@ 213
objec@@ 213
rivière 213
shouldn 213
teau 213
vulnér@@ 213
çais 213
èse 213
étend@@ 213
.000 212
Microsoft 212
acceler@@ 212
climat 212
couche 212
dessin 212
esh 212
essais 212
filled 212
gt 212
oceans 212
oire 212
random 212
règle 212
server 212
studied 212
ya 212
Dev@@ 211
Have 211
Homme 211
Ken@@ 211
Mich@@ 211
abe 211
ape 211
apprennent 211
ard@@ 211
ata 211
background 211
beat 211
cloud 211
courbe 211
câ@@ 211
elements 211
erve 211
ety 211
failed 211
fill 211
grosse 211
interro@@ 211
offrir 211
paras@@ 211
pea@@ 211
possède 211
pêche 211
richesse 211
sacri@@ 211
sommeil 211
vouloir 211
US 210
agissent 210
archi@@ 210
ayez 210
chée 210
compared 210
comprend 210
consiste 210
dition 210
décrire 210
erais 210
erre 210
exu@@ 210
feedback 210
gestion 210
individu 210
lob@@ 210
mari 210
now@@ 210
ode 210
présence 210
réelle 210
sector 210
sorry 210
sphère 210
stable 210
sters 210
strategy 210
tern@@ 210
thèse 210
trouvons 210
vaut 210
Did 209
até 209
chocol@@ 209
consommat@@ 209
cosmo@@ 209
dense 209
file 209
gol@@ 209
itement 209
kill@@ 209
leads 209
montagne 209
nie 209
ograph@@ 209
placed 209
plane 209
ried 209
semblent 209
sle@@ 209
sse 209
thes@@ 209
university 209
Grand 208
Women 208
alu@@ 208
boul@@ 208
cass@@ 208
comb@@ 208
devriez 208
effon@@ 208
implications 208
ingénierie 208
lycée 208
mates 208
participer 208
personnelle 208
portée 208
previ@@ 208
psychi@@ 208
somme 208
super-@@ 208
tes-vous 208
th-@@ 208
tombe 208
ung 208
Dr 207
Est 207
Mexico 207
Quelqu&apos; 207
Som@@ 207
anz@@ 207
arms 207
belief 207
blog 207
catég@@ 207
cous@@ 207
creation 207
expect@@ 207
keeping 207
lecture 207
load 207
menace 207
quote 207
steps 207
Soci@@ 206
Ter@@ 206
Tom 206
anta 206
arrivés 206
arrêté 206
athan 206
bats 206
cident@@ 206
competition 206
ecteur 206
effray@@ 206
enseignement 206
eur@@ 206
faudr@@ 206
gh 206
invest 206
jun@@ 206
lè@@ 206
moves 206
multi-@@ 206
offer 206
phant 206
pollen 206
précisément 206
pê@@ 206
rentrer 206
représentent 206
reux 206
soin 206
stone 206
tube 206
usine 206
yellow 206
Mag@@ 205
Pourtant 205
School 205
acking 205
ander 205
arily 205
bank 205
chaud 205
childhood 205
contient 205
cuis@@ 205
dez 205
engineers 205
ework 205
glo@@ 205
grand-@@ 205
locaux 205
majority 205
minus@@ 205
mothers 205
mouse 205
patho@@ 205
populaire 205
recevoir 205
respond 205
revient 205
sculpture 205
sifs 205
sport 205
ster@@ 205
thin 205
volonté 205
° 205
échapp@@ 205
épidémie 205
250 204
Nations 204
amené 204
arrête 204
aspir@@ 204
campaign 204
clav@@ 204
créent 204
ense@@ 204
f-@@ 204
faim 204
fie 204
flight 204
ila 204
internation@@ 204
leçon 204
maj@@ 204
managed 204
management 204
meurent 204
noms 204
nourrir 204
polio 204
profond@@ 204
six@@ 204
sortie 204
tables 204
État 204
élimin@@ 204
Satur@@ 203
See 203
adults 203
argu@@ 203
aurons 203
brother 203
businesses 203
caractéristiques 203
caught 203
colors 203
dimension 203
frontières 203
illage 203
intelligents 203
intense 203
jud@@ 203
labor 203
mettez 203
nav@@ 203
newsp@@ 203
organized 203
photograp@@ 203
politici@@ 203
proud 203
rempli@@ 203
suffit 203
tail 203
tele@@ 203
thre@@ 203
tured 203
Japon 202
cens@@ 202
cogni@@ 202
color@@ 202
découvertes 202
enjoy 202
enz@@ 202
essentiel 202
flies 202
idi@@ 202
leaving 202
letter 202
mess@@ 202
na 202
names 202
parking 202
phins 202
programm@@ 202
propose 202
rep@@ 202
ressentir 202
sable 202
secrets 202
soldats 202
transform 202
transl@@ 202
-ci 201
Congo 201
Fe@@ 201
French 201
Pan@@ 201
acted 201
angers 201
argue 201
comprennent 201
consequences 201
conservation 201
erg@@ 201
exhi@@ 201
existent 201
expres@@ 201
fore@@ 201
itude 201
ization 201
marque 201
portables 201
profound 201
remerci@@ 201
sexual 201
sombre 201
territ@@ 201
tissu 201
weird 201
Auc@@ 200
Islam@@ 200
Public 200
Stu@@ 200
account 200
aded 200
anciens 200
aying 200
block 200
bouche 200
chaleur 200
challeng@@ 200
chimpanz@@ 200
dess@@ 200
eting 200
exig@@ 200
expansion 200
globe 200
gne 200
interprét@@ 200
lock 200
married 200
mathematics 200
rendent 200
sudden 200
ulation 200
versus 200
watched 200
wear 200
érieur 200
Amazon 199
Del@@ 199
chaos 199
cide 199
considér@@ 199
cô@@ 199
fé@@ 199
honest 199
inal 199
insec@@ 199
mour@@ 199
musée 199
mél@@ 199
possé@@ 199
separ@@ 199
simplic@@ 199
typical 199
wearing 199
Alex@@ 198
IS@@ 198
M. 198
More 198
Rien 198
Tu@@ 198
Very 198
aisse@@ 198
aling 198
appelait 198
ason 198
ato@@ 198
box@@ 198
chol@@ 198
chons 198
concerned 198
conférences 198
crip@@ 198
demand 198
desc@@ 198
dor@@ 198
désir 198
engine 198
ference 198
gency 198
grave 198
invite 198
mille 198
pyram@@ 198
quantit@@ 198
quez 198
retrouver 198
terres 198
volunte@@ 198
vrais 198
Go 197
Mark 197
affect 197
animation 197
aque 197
beaux 197
bers 197
conten@@ 197
demi-@@ 197
dign@@ 197
donnée 197
drag@@ 197
dry 197
experim@@ 197
gene@@ 197
generate 197
itage 197
lettre 197
ounds 197
path@@ 197
peut-on 197
press@@ 197
principles 197
queue 197
régime 197
sty@@ 197
tile 197
tually 197
utilisée 197
vag@@ 197
écriture 197
énormément 197
32 196
Angleterre 196
ED 196
Stanford 196
acheté 196
activités 196
advantage 196
aille 196
amed 196
boulot 196
br 196
circuit 196
demandez 196
disco@@ 196
disponibles 196
drap@@ 196
driven 196
déterminer 196
fair 196
feu@@ 196
followed 196
insects 196
merveill@@ 196
merveilleuse 196
mic@@ 196
nommé 196
paysage 196
ped 196
penses 196
poli@@ 196
protég@@ 196
quitté 196
reur 196
tens 196
travailleurs 196
ute 196
éter 196
Higgs 195
Institute 195
Manhattan 195
SIDA 195
Wow 195
accidents 195
agents 195
appeared 195
attitude 195
auront 195
believed 195
chiffre 195
chirur@@ 195
described 195
ecu@@ 195
friend@@ 195
générations 195
jour@@ 195
kilometers 195
occur@@ 195
operating 195
oty@@ 195
oureux 195
professional 195
proté@@ 195
talent 195
tera 195
wave 195
weapons 195
wide 195
écoute 195
Mr. 194
Nobel 194
annu@@ 194
any@@ 194
caf@@ 194
chec@@ 194
compag@@ 194
doigts 194
domes@@ 194
ferait 194
généralement 194
ivent 194
labo 194
limite 194
lo 194
meter 194
neutr@@ 194
objectifs 194
obten@@ 194
prisonn@@ 194
psych@@ 194
sia 194
traffic 194
travaillant 194
traverser 194
tude 194
unfortunately 194
Bl@@ 193
Moy@@ 193
Orient 193
Yor@@ 193
ayed 193
connue 193
cons@@ 193
denti@@ 193
distin@@ 193
empath@@ 193
ental 193
exposé 193
factory 193
fashion 193
fus@@ 193
grown 193
homes 193
investir 193
motion 193
onde 193
oral 193
propri@@ 193
rav@@ 193
recev@@ 193
sand 193
sangu@@ 193
sant 193
sensor@@ 193
separate 193
signaux 193
souvenir 193
trick 193
unité 193
urban@@ 193
year-old 193
youn@@ 193
yr@@ 193
île 193
Fre@@ 192
Ghana 192
Irak 192
agré@@ 192
aisons 192
carbur@@ 192
cardiaque 192
connecter 192
culaire 192
develop@@ 192
disais 192
electric 192
engineer 192
facteurs 192
fera 192
foreign 192
gor@@ 192
inventer 192
invited 192
je@@ 192
mani@@ 192
noise 192
parc 192
participants 192
prevent 192
prior@@ 192
propriété 192
proto@@ 192
préci@@ 192
rais 192
represent 192
régu@@ 192
satellites 192
ships 192
t-ils 192
vues 192
Ouais 191
Royaume-Uni 191
SA 191
Texas 191
avoid 191
boo@@ 191
cheap 191
compren@@ 191
confir@@ 191
constantly 191
count 191
debout 191
dirigeants 191
dév@@ 191
houses 191
just@@ 191
mentale 191
meu@@ 191
morale 191
métri@@ 191
obstacles 191
otherwise 191
plante 191
received 191
signe 191
simil@@ 191
spot 191
st-@@ 191
treated 191
témo@@ 191
utilisateurs 191
Ko@@ 190
Mad@@ 190
Science 190
amusant 190
annivers@@ 190
asp@@ 190
begins 190
brilliant 190
consist@@ 190
contrô@@ 190
coordin@@ 190
deliver 190
dépression 190
elling 190
emerg@@ 190
enseigner 190
entou@@ 190
eth 190
fields 190
fourmis 190
hier 190
interview 190
intitu@@ 190
ision 190
jouent 190
laugh@@ 190
mesur@@ 190
opening 190
operate 190
prouv@@ 190
refuge@@ 190
safety 190
sev@@ 190
sister 190
slowly 190
soil 190
stes 190
thes 190
thin@@ 190
tho@@ 190
toil@@ 190
utiles 190
ven 190
16@@ 189
Centr@@ 189
Everybody 189
My@@ 189
Rio 189
Wil@@ 189
aliment@@ 189
belles 189
biens 189
constamment 189
continué 189
contrôl@@ 189
cos@@ 189
depression 189
dirige@@ 189
efficacité 189
eful 189
fenêtre 189
grap@@ 189
horri@@ 189
identify 189
internationale 189
moon 189
parlant 189
pointe 189
prenant 189
septembre 189
seriously 189
soldiers 189
struggle 189
suggests 189
survie 189
testing 189
theater 189
therapy 189
équivalent 189
Audience 188
Each 188
attaque 188
crucial 188
exprimer 188
ferme 188
gain 188
glu@@ 188
hate 188
incar@@ 188
intention 188
itu@@ 188
majeu@@ 188
mettons 188
museum 188
organes 188
organic 188
participation 188
pati@@ 188
perfectly 188
puzzle 188
pâ@@ 188
radiation 188
routes 188
scanner 188
sûrement 188
thinks 188
touche 188
tric 188
waves 188
wisdom 188
95 187
Bre@@ 187
Hom@@ 187
Hy@@ 187
Pal@@ 187
analysis 187
arguments 187
avoc@@ 187
bia 187
classroom 187
considered 187
convic@@ 187
demment 187
dente 187
directeur 187
directions 187
ee 187
feuille 187
fonctionnement 187
forests 187
frequ@@ 187
ints 187
musical 187
paying 187
philosophi@@ 187
pique 187
publics 187
reuse 187
survival 187
tough 187
veu@@ 187
vêtements 187
2006 186
Atlan@@ 186
Wat@@ 186
acteurs 186
actif 186
bab@@ 186
chirurgi@@ 186
closed 186
co 186
coo@@ 186
debate 186
dients 186
disponible 186
fabul@@ 186
gath@@ 186
ght-@@ 186
ghter 186
ignorance 186
joué 186
langues 186
multiple 186
pois@@ 186
prev@@ 186
prostitu@@ 186
ren 186
responsables 186
se-@@ 186
sequence 186
verte 186
éduc@@ 186
étaire 186
1000 185
Don@@ 185
Malheureusement 185
Mor@@ 185
RM 185
aques 185
cards 185
chat 185
comport@@ 185
define 185
dessin@@ 185
devaient 185
dispos@@ 185
durée 185
dévelop@@ 185
fiant 185
frais 185
fundament@@ 185
graduate 185
grat@@ 185
iron@@ 185
launched 185
nationale 185
nécessaires 185
performan@@ 185
protéines 185
spr@@ 185
statistics 185
surprised 185
tourne 185
traumati@@ 185
vois@@ 185
whom 185
élè@@ 185
ômes 185
ôtre 185
26 184
C. 184
Celu@@ 184
Prenez 184
adver@@ 184
ancing 184
anthropo@@ 184
bâ@@ 184
chant@@ 184
character@@ 184
clinical 184
collect 184
concre@@ 184
célébr@@ 184
detail 184
encies 184
esprits 184
fel@@ 184
fish@@ 184
govern@@ 184
goût 184
heav@@ 184
ine@@ 184
insul@@ 184
istance 184
matériau 184
musul@@ 184
normally 184
négoci@@ 184
obser@@ 184
occas@@ 184
partage@@ 184
pensées 184
peri@@ 184
philanthro@@ 184
primer 184
principale 184
recu@@ 184
regardent 184
replic@@ 184
rè@@ 184
selling 184
surpris 184
them@@ 184
visions 184
établ@@ 184
Australia 183
Fri@@ 183
Jim 183
Park 183
Phili@@ 183
Would 183
addition 183
alisé 183
antages 183
avan@@ 183
bear 183
esting 183
exists 183
intéressantes 183
ket@@ 183
laser 183
manage 183
netto@@ 183
popul@@ 183
sey 183
sorti@@ 183
straté@@ 183
sum 183
texte 183
threat 183
venez 183
worried 183
érés 183
Certaines 182
Everything 182
Israel 182
Num@@ 182
bir@@ 182
currently 182
designing 182
dinner 182
drawing 182
ems 182
enter@@ 182
fais@@ 182
fortunately 182
generations 182
hasn 182
mail 182
malheureusement 182
meaning@@ 182
mentioned 182
observation 182
paint 182
passés 182
protein 182
shif@@ 182
soutenir 182
strai@@ 182
sub-@@ 182
users 182
étoile 182
14@@ 181
Wikipedia 181
adulte 181
aimons 181
alls 181
asks 181
associated 181
bout@@ 181
brand 181
categ@@ 181
couv@@ 181
daily 181
desire 181
dia@@ 181
dynamic 181
environnement@@ 181
eter@@ 181
free@@ 181
hell 181
itablement 181
mom@@ 181
pouviez 181
préserv@@ 181
shap@@ 181
shir@@ 181
signals 181
spe@@ 181
terres@@ 181
thir@@ 181
threat@@ 181
visibles 181
yers 181
électriques 181
érir 181
800 180
Deux@@ 180
Frank 180
Gates 180
Green@@ 180
Pensez 180
aéro@@ 180
cercle 180
civilisation 180
consumption 180
côtés 180
doigt 180
essor 180
fell 180
folks 180
gent@@ 180
harder 180
healthcare 180
incenti@@ 180
k-@@ 180
lux@@ 180
marriage 180
oting 180
otion 180
patri@@ 180
phants 180
physiques 180
pluie 180
pont 180
quitter 180
researchers 180
rid 180
scene 180
semblait 180
serez 180
shoes 180
simpl@@ 180
target 180
tern 180
toilettes 180
toward 180
tro 180
ull 180
vr@@ 180
Alzheimer 179
Enfin 179
GDP 179
Juste 179
Mexique 179
ald 179
autis@@ 179
aux@@ 179
avantage 179
bic@@ 179
chur@@ 179
clinique 179
explosion 179
fantas@@ 179
highest 179
ission 179
mach@@ 179
malade 179
males 179
powered 179
rand@@ 179
réduit 179
simulation 179
smell 179
unless 179
voices 179
ènes 179
électronique 179
2003 178
Could 178
Du 178
PA 178
aperçu 178
civilization 178
correctement 178
dise 178
divi@@ 178
gente 178
ggl@@ 178
green@@ 178
gueur 178
harmon@@ 178
honte 178
intéressé 178
isée 178
it-@@ 178
lessons 178
littér@@ 178
mage 178
obtient 178
pourra 178
power@@ 178
ressembler 178
stiques 178
thesis 178
turb@@ 178
wil@@ 178
ériques 178
états 178
Gro@@ 177
Sun 177
Three 177
ab 177
agues 177
aking 177
arly 177
atin 177
circle 177
clock 177
degrés 177
economics 177
eus 177
exception 177
fense 177
fruit 177
grippe 177
increasingly 177
légèrement 177
orders 177
pes@@ 177
picked 177
plea@@ 177
poésie 177
privée 177
publ@@ 177
roman@@ 177
référence 177
senti@@ 177
spati@@ 177
sports 177
utilisées 177
énerg@@ 177
Bush 176
Chi@@ 176
Dar@@ 176
Gl@@ 176
PIB 176
alph@@ 176
ament 176
attend 176
breast 176
cellent 176
centres 176
combinaison 176
coral 176
discipl@@ 176
essé 176
ez-moi 176
faith 176
générale 176
joie 176
joueurs 176
leaves 176
lié 176
low@@ 176
là-dessus 176
montagnes 176
movements 176
natur@@ 176
ny 176
oning 176
ordinary 176
pers 176
pin@@ 176
saf@@ 176
sentence 176
small@@ 176
solu@@ 176
sophistic@@ 176
souches 176
trip 176
universal 176
veill@@ 176
woo@@ 176
28 175
Hé 175
Kore@@ 175
absence 175
anneau 175
autism 175
cheveux 175
communi@@ 175
contra@@ 175
démi@@ 175
ests 175
foie 175
fold 175
guer 175
gun 175
inner 175
jardin 175
jump 175
layer 175
lowers 175
natu@@ 175
normale 175
nutri@@ 175
oke 175
pensaient 175
pron@@ 175
réveill@@ 175
shoul@@ 175
sto@@ 175
strate@@ 175
surge@@ 175
thérapie 175
warming 175
élo@@ 175
2004 174
Mer@@ 174
War@@ 174
actor 174
adapter 174
aidé 174
ancest@@ 174
auxquels 174
basé 174
bibliothè@@ 174
calling 174
cave 174
client 174
collè@@ 174
constant 174
counter@@ 174
déclen@@ 174
ennem@@ 174
equipment 174
essive 174
excell@@ 174
faç@@ 174
frères 174
gren@@ 174
happ@@ 174
heureuse 174
iP@@ 174
intelli@@ 174
intuition 174
isi@@ 174
leg 174
lentement 174
mesures 174
parole 174
president 174
quantum 174
résolution 174
réunion 174
révolu@@ 174
score 174
soyez 174
stood 174
théâtre 174
vieille 174
étranger 174
étudie 174
Their 173
academ@@ 173
acteur 173
altitude 173
are@@ 173
arro@@ 173
considère 173
coûts 173
croient 173
danger@@ 173
demain 173
demandent 173
details 173
emissions 173
experienced 173
figures 173
formed 173
gar 173
gique 173
igh 173
inking 173
intain 173
island 173
lour@@ 173
mm 173
més 173
pousse 173
processes 173
profon@@ 173
prove 173
réussir 173
seat 173
sir 173
situ@@ 173
stand@@ 173
tus 173
vaste 173
“ 173
Nouv@@ 172
Oxford 172
ainement 172
baseball 172
brou@@ 172
cident 172
devrais 172
eds 172
essayant 172
eton 172
exo@@ 172
fail 172
gang 172
gram 172
hopefully 172
intrig@@ 172
joy 172
master 172
new@@ 172
ord 172
personnage 172
platform 172
rationn@@ 172
respi@@ 172
saved 172
shapes 172
technical 172
twe@@ 172
viande 172
west 172
wid@@ 172
Australie 171
Can@@ 171
Leur 171
Mac@@ 171
San@@ 171
alism 171
amine 171
arme 171
aurions 171
aut 171
bande 171
caused 171
coté 171
dealing 171
dus 171
définir 171
exécu@@ 171
faus@@ 171
fices 171
fore 171
gap 171
im 171
iment 171
inequality 171
infec@@ 171
ing-@@ 171
invas@@ 171
languages 171
largement 171
losing 171
lunch 171
meat 171
molecule 171
orange 171
partner 171
rab@@ 171
ray 171
reaction 171
release 171
rol@@ 171
techn@@ 171
tien 171
traitements 171
33 170
Congr@@ 170
England 170
Germany 170
Sur@@ 170
Tro@@ 170
adult 170
appellent 170
arrived 170
autrement 170
bien-être 170
cameras 170
chaussures 170
clip 170
consac@@ 170
curious 170
dessiner 170
drogue 170
envis@@ 170
intérêts 170
ki 170
link 170
mathematical 170
nervous 170
nets 170
ota 170
pare 170
pic 170
ro 170
réser@@ 170
solé 170
stupé@@ 170
symme@@ 170
tenant 170
tenti@@ 170
çait 170
édu@@ 170
étapes 170
” 170
2.@@ 169
Bang 169
DH 169
Eric 169
Gab@@ 169
Gar@@ 169
Peu 169
Sa 169
Sep@@ 169
Ty@@ 169
ailles 169
aimer 169
bo 169
bread 169
bright 169
carré 169
chain 169
complet 169
devions 169
document 169
enni@@ 169
epidemic 169
fat@@ 169
ghten@@ 169
guerres 169
ième 169
keys 169
lym@@ 169
maintenir 169
molécule 169
onc@@ 169
ophi@@ 169
opy 169
partis 169
plani@@ 169
precis@@ 169
principle 169
prouver 169
réussite 169
sting 169
séquence 169
tious 169
titude 169
travaux 169
100,000 168
29 168
Nature 168
President 168
Rom@@ 168
ancienne 168
angles 168
artificial 168
bataille 168
ble@@ 168
boug@@ 168
cid@@ 168
compagnies 168
concentration 168
controll@@ 168
def@@ 168
dimin@@ 168
désert 168
entrepreneur 168
equivalent 168
establ@@ 168
facing 168
factors 168
illir 168
imm@@ 168
isez 168
ither 168
mammif@@ 168
movies 168
méthodes 168
nouvel 168
poign@@ 168
quons 168
red@@ 168
rions-nous 168
sagesse 168
sight 168
similaires 168
sity 168
souci@@ 168
terminer 168
titudes 168
transmission 168
tâches 168
videos 168
voire 168
BC 167
Hun@@ 167
airplane 167
ares 167
arrang@@ 167
charbon 167
déjeuner 167
essayez 167
extraordinaires 167
galaxy 167
ganda 167
grain 167
grou@@ 167
illing 167
independent 167
letters 167
maîtr@@ 167
me-@@ 167
miro@@ 167
opti@@ 167
perce@@ 167
pharmaceu@@ 167
prototy@@ 167
prét@@ 167
regular 167
relevant 167
spoke 167
spécial 167
tais 167
trous 167
ware 167
évè@@ 167
événement 167
700 166
Bon@@ 166
Jon@@ 166
Mary 166
Rwanda 166
Sa@@ 166
Sans 166
Smith 166
aitre 166
aled 166
alise 166
alities 166
aliz@@ 166
chemistry 166
cock@@ 166
combus@@ 166
croyons 166
cue 166
deter@@ 166
dialogue 166
exper@@ 166
explan@@ 166
frame 166
grand-mère 166
manifes@@ 166
mathemati@@ 166
otechno@@ 166
privé 166
propriétés 166
puissants 166
quanti@@ 166
rates 166
risks 166
réchauffement 166
scann@@ 166
souffr@@ 166
spring 166
surfaces 166
2001 165
Quelques 165
Roc@@ 165
agissait 165
banque 165
bases 165
bet 165
circulation 165
clou@@ 165
conséquent 165
controlled 165
dat 165
devi@@ 165
discrimin@@ 165
driver 165
démonstration 165
essions 165
finish 165
football 165
hadn 165
historique 165
implique 165
izing 165
parall@@ 165
passée 165
placement 165
player 165
poetry 165
producing 165
prê@@ 165
refus@@ 165
released 165
repas 165
reuses 165
schizoph@@ 165
signs 165
tis 165
tomorrow 165
unit 165
warm 165
zes 165
Does 164
K. 164
Occident 164
State 164
accept 164
ames 164
anten@@ 164
auriez 164
bad@@ 164
campus 164
circuits 164
conseil 164
correspond 164
crimes 164
descendre 164
diale 164
ech 164
ening 164
entert@@ 164
essential 164
ested 164
exions 164
fan 164
feelings 164
figu@@ 164
fourth 164
gold 164
holes 164
impul@@ 164
insur@@ 164
journaliste 164
laissez-moi 164
life@@ 164
mans 164
mets 164
mécanique 164
nombres 164
nor 164
parado@@ 164
players 164
porting 164
proce@@ 164
respir@@ 164
setting 164
singes 164
thoughts 164
transforme 164
variety 164
vehicle 164
édi@@ 164
émission 164
équipement 164
œurs 164
194@@ 163
20th 163
Egyp@@ 163
Island 163
Jusqu&apos; 163
Steph@@ 163
antan@@ 163
cau@@ 163
comprends 163
connus 163
damage 163
deb@@ 163
dures 163
décennie 163
détecter 163
ecter 163
evin 163
extinction 163
gig@@ 163
guide 163
journaux 163
lifetime 163
metaphor 163
noy@@ 163
ouvre 163
particulière 163
pond 163
pre-@@ 163
remote 163
ride 163
réflexion 163
régl@@ 163
sen 163
spirit 163
suggest 163
trials 163
wake 163
wondering 163
worldwide 163
Bay 162
Chac@@ 162
PD@@ 162
axe 162
cape 162
ceux-@@ 162
champi@@ 162
characters 162
combine 162
complète 162
compétition 162
conscient 162
contempor@@ 162
convinced 162
emerging 162
exploitation 162
fascinant 162
frontière 162
générer 162
ith 162
killing 162
lait 162
liked 162
narr@@ 162
pairs 162
properties 162
property 162
rassembler 162
stock 162
strength 162
suppos@@ 162
technologique 162
toit 162
triste 162
veget@@ 162
vélo 162
weather 162
émis@@ 162
120 161
1990 161
Allemagne 161
Arab 161
Carol@@ 161
Come 161
Mand@@ 161
Phil@@ 161
aigu@@ 161
allant 161
anny 161
atis@@ 161
baiss@@ 161
balle 161
bit@@ 161
bling 161
boun@@ 161
cependant 161
conven@@ 161
craft 161
drink 161
embarrass@@ 161
enem@@ 161
entends 161
eted 161
finger 161
fiée 161
hôpitaux 161
implan@@ 161
implic@@ 161
ince 161
longues 161
member 161
métaphore 161
ombre 161
ont-ils 161
open-source 161
organ 161
pause 161
relative 161
ressemblait 161
simpli@@ 161
tort 161
troubles 161
versions 161
wonder@@ 161
Cap@@ 160
Hel@@ 160
Shi@@ 160
accepter 160
ancêtres 160
aniel 160
audit@@ 160
bénéfici@@ 160
champs 160
chromo@@ 160
civile 160
clean@@ 160
condi@@ 160
dames 160
deeper 160
disaster 160
eld 160
electrical 160
engager 160
fiés 160
formu@@ 160
hauteur 160
infection 160
ino 160
jaune 160
ko 160
lle 160
lows 160
maps 160
miracle 160
mortality 160
mè@@ 160
organiser 160
otes 160
passionate 160
plays 160
printing 160
prisons 160
probl@@ 160
promis 160
prédire 160
ramener 160
shall 160
sides 160
ski@@ 160
solving 160
specifically 160
écri@@ 160
3,000 159
Ess@@ 159
Ever@@ 159
alé@@ 159
assistance 159
bed@@ 159
blancs 159
carefully 159
chimie 159
ectu@@ 159
eh 159
ereas 159
foi 159
fonctions 159
interagir 159
kin 159
kly 159
leçons 159
modé@@ 159
near@@ 159
parfaite 159
pop 159
quatrième 159
requins 159
requires 159
rout@@ 159
sad 159
sets 159
shu@@ 159
switch 159
thèses 159
till 159
tioning 159
tise 159
tissus 159
underneath 159
utilisez 159
verb@@ 159
wash@@ 159
z-y 159
épau@@ 159
Av@@ 158
Bible 158
Museum 158
Sam@@ 158
according 158
adolescents 158
advanced 158
amaz@@ 158
attraper 158
auc@@ 158
cules 158
defin@@ 158
dessins 158
dest 158
dî@@ 158
emotion 158
encing 158
evil 158
ew 158
exchange 158
fluor@@ 158
fur 158
gra@@ 158
immun@@ 158
impl@@ 158
jeu@@ 158
matern@@ 158
menac@@ 158
method 158
médical 158
médicaux 158
nic@@ 158
oeil 158
plai@@ 158
prac@@ 158
prends 158
propag@@ 158
protected 158
rapidly 158
represents 158
resource 158
smart@@ 158
solved 158
surpren@@ 158
venaient 158
vente 158
véhicules 158
yesterday 158
établir 158
85 157
Congrès 157
Joe 157
Sahar@@ 157
Yet 157
ailed 157
akes 157
appliquer 157
assi@@ 157
broke 157
cine 157
cole 157
compati@@ 157
cross 157
discipline 157
disparu 157
empathie 157
enregist@@ 157
essai 157
exag@@ 157
exercise 157
farm 157
fen@@ 157
fondamentale 157
intellig@@ 157
intes 157
liés 157
lumières 157
mises 157
nutrition 157
opar@@ 157
organisme 157
otte 157
positifs 157
possibilities 157
professor 157
puissions 157
records 157
refu@@ 157
résu@@ 157
sac 157
sending 157
sian 157
spectacle 157
stupid 157
talents 157
util@@ 157
victims 157
vous-même 157
électro@@ 157
Andrew 156
Britain 156
Day 156
Tre@@ 156
alimentation 156
claim 156
depl@@ 156
décid@@ 156
effectively 156
extrême 156
forestation 156
globale 156
hypothèse 156
ingénieur 156
inspire 156
lice 156
logic 156
mark 156
montrant 156
negoti@@ 156
ottes 156
pregn@@ 156
quelques-uns 156
remain 156
require 156
tape 156
voisins 156
éclai@@ 156
œur 156
Cro@@ 155
Gran@@ 155
International 155
Will 155
agno@@ 155
aurez 155
captur@@ 155
coal 155
connaît 155
designs 155
diagnostic 155
dorm@@ 155
dose 155
europé@@ 155
funding 155
galaxie 155
goals 155
golf 155
heavy 155
iter@@ 155
maire 155
modernes 155
pack@@ 155
panneaux 155
pen 155
phot@@ 155
photo@@ 155
pollin@@ 155
relativement 155
sentiments 155
suggère 155
tac@@ 155
tale 155
tual 155
viruses 155
visages 155
Den@@ 154
Ethiop@@ 154
Im@@ 154
Kar@@ 154
Narr@@ 154
Nic@@ 154
addi@@ 154
ae 154
assemble 154
asses 154
attacks 154
augmenté 154
awful 154
bactéri@@ 154
bét@@ 154
cliniques 154
club 154
concert 154
connecté 154
cris@@ 154
créée 154
desert 154
dictions 154
distr@@ 154
enjo@@ 154
fellow 154
grati@@ 154
how@@ 154
ination 154
increasing 154
introduce 154
justi@@ 154
liquide 154
moder@@ 154
oppos@@ 154
origami 154
ouverture 154
pierre 154
poème 154
préoccup@@ 154
quasiment 154
quette 154
ram 154
rhy@@ 154
schéma 154
scén@@ 154
sensitive 154
spac@@ 154
standards 154
stations 154
swim@@ 154
tane@@ 154
trillion 154
wings 154
2012 153
A. 153
Bob 153
Cel@@ 153
Fai@@ 153
Gore 153
Hollywood 153
Palest@@ 153
Please 153
actuel 153
atre 153
awareness 153
ballo@@ 153
breaking 153
chemicals 153
chimpanzés 153
commencez 153
conséqu@@ 153
croit 153
ction 153
depends 153
dop@@ 153
doul@@ 153
empty 153
fishing 153
ived 153
locale 153
long-term 153
mélange 153
narrative 153
philos@@ 153
publicité 153
quartiers 153
required 153
restric@@ 153
réfugiés 153
réparer 153
sees 153
signed 153
stea@@ 153
trace 153
transformé 153
whenever 153
wise 153
épi@@ 153
équip@@ 153
ôt 153
0 152
Ebola 152
Hai@@ 152
Japanese 152
Medic@@ 152
Pen@@ 152
Plu@@ 152
Viet@@ 152
administration 152
aly@@ 152
anger@@ 152
anticip@@ 152
attaquer 152
bage 152
brit@@ 152
cend@@ 152
convince 152
credit 152
céré@@ 152
definitely 152
dir@@ 152
donnant 152
dots 152
env@@ 152
ethni@@ 152
instructions 152
lumin@@ 152
mic 152
normalement 152
obé@@ 152
oncé 152
opher 152
practical 152
quantique 152
reu@@ 152
spectrum 152
suicide 152
suscep@@ 152
tery 152
traditions 152
tuellement 152
yn 152
échange 152
édie 152
édit@@ 152
étr@@ 152
Chin@@ 151
Every@@ 151
Last 151
Lea@@ 151
Nig@@ 151
Rome 151
Whit@@ 151
blogs 151
breath 151
bud@@ 151
copy 151
deviend@@ 151
dings 151
dinosaures 151
ecteurs 151
empre@@ 151
emprun@@ 151
ena 151
engaged 151
express 151
extrait 151
fermi@@ 151
fresh 151
hackers 151
hormon@@ 151
immer@@ 151
infirmi@@ 151
instruc@@ 151
iture 151
jac@@ 151
maman 151
mes-@@ 151
ouverte 151
perf@@ 151
permanent 151
profits 151
relatively 151
remettre 151
rose 151
soi@@ 151
tit@@ 151
vely 151
étonnant 151
Bonjour 150
LA 150
Mas@@ 150
Moore 150
Sing@@ 150
accomplir 150
alien 150
alisée 150
ander@@ 150
apr@@ 150
carrying 150
centers 150
circumst@@ 150
cript 150
cruci@@ 150
curité 150
defined 150
detect 150
endem@@ 150
enty 150
ew@@ 150
gation 150
grandmother 150
génie 150
hide 150
inher@@ 150
marin 150
oiseau 150
ouest 150
pengu@@ 150
personnages 150
pie 150
plate 150
poste 150
rational 150
refer@@ 150
rouges 150
sett@@ 150
slu@@ 150
tandis 150
tenter 150
unusual 150
vague 150
visuel 150
wich 150
Ci@@ 149
Euro@@ 149
FBI 149
Hen@@ 149
Her 149
Lab 149
Moi 149
Project 149
Tas@@ 149
affected 149
aft 149
aident 149
araign@@ 149
augh 149
bouteille 149
buying 149
chefs 149
click 149
couverture 149
dark@@ 149
débarr@@ 149
ester 149
evoir 149
existing 149
fondamentalement 149
hallucin@@ 149
include 149
ison 149
lay 149
liqui@@ 149
liver 149
mange@@ 149
metho@@ 149
midi 149
oles 149
poem 149
realiz@@ 149
renouvel@@ 149
retraite 149
sci@@ 149
spatial 149
stitu@@ 149
thanks 149
tibles 149
tot@@ 149
totale 149
uler 149
vivants 149
vulnerable 149
érie 149
ôme 149
00,000 148
Bank 148
Brun@@ 148
Finalement 148
Quel@@ 148
While 148
absolute 148
automobile 148
cer 148
champign@@ 148
compter 148
drives 148
drome 148
emmener 148
envelop@@ 148
evolutionary 148
figur@@ 148
foundation 148
gard@@ 148
impacts 148
inspiré 148
jus@@ 148
kins 148
mountains 148
méd@@ 148
ologues 148
peinture 148
poche 148
que@@ 148
reco@@ 148
restent 148
reusement 148
roughly 148
round 148
rév@@ 148
sit@@ 148
status 148
surprenant 148
terminé 148
tionner 148
vey 148
worlds 148
ço@@ 148
éder 148
érées 148
événements 148
Ale@@ 147
Health 147
Lad@@ 147
Sci@@ 147
Since 147
Toute 147
Trois 147
USA 147
ala 147
aving 147
awesome 147
battery 147
bill@@ 147
blocks 147
centu@@ 147
coast 147
colonies 147
communic@@ 147
elop@@ 147
fruits 147
gentlemen 147
gment 147
honnête 147
hospitals 147
industries 147
invent 147
magasin 147
molecular 147
neig@@ 147
perform 147
politicians 147
proch@@ 147
sively 147
staf@@ 147
stun@@ 147
sustain@@ 147
swi@@ 147
terrorisme 147
tiles 147
tionary 147
transparent 147
uer 147
variation 147
vation 147
à-@@ 147
1980 146
25@@ 146
Silicon 146
announc@@ 146
appear@@ 146
architecte 146
attaques 146
avons-nous 146
band 146
bene@@ 146
composants 146
courte 146
drones 146
démocrati@@ 146
embre 146
ength 146
environments 146
facteur 146
gou@@ 146
gout@@ 146
gravité 146
ignore 146
introduced 146
kitch@@ 146
lay@@ 146
lic 146
mate 146
molé@@ 146
opérations 146
passe-t-il 146
rat 146
rati@@ 146
résistance 146
sieurs 146
south 146
teeth 146
valuable 146
venture 146
ving@@ 146
visit@@ 146
véhicule 146
yn@@ 146
colo@@ 145
courag@@ 145
lady 145
pollu@@ 145
resear@@ 145
sophisti@@ 145
suring 145
terrorism 145
ulaires 145
underwater 145
variations 145
étri@@ 145
ôle 145
May@@ 144
administr@@ 144
amoun@@ 144
camér@@ 144
cat 144
confidence 144
eues 144
less@@ 144
microsc@@ 144
miss@@ 144
music@@ 144
writer 144
aises 143
aper@@ 143
bles@@ 143
extinc@@ 143
gel@@ 143
gles 143
onom@@ 143
Tw@@ 142
ben@@ 142
buil@@ 142
dogs 142
ein 142
logici@@ 142
typic@@ 142
Goo@@ 141
artis@@ 141
cit@@ 141
computing 141
ec 141
equality 141
infrastruc@@ 141
ount@@ 141
play@@ 141
surveill@@ 141
tats 141
yez 141
citiz@@ 140
ood 140
sep@@ 140
till@@ 140
traite 140
hood 139
illed 139
impres@@ 139
puiss@@ 139
sion@@ 139
anced 138
celui-@@ 138
cle@@ 138
competi@@ 138
interes@@ 138
itch@@ 138
op 138
surg@@ 138
ased 137
inspi@@ 137
mention 137
statis@@ 137
.. 136
alie 136
conflic@@ 136
croiss@@ 136
dee@@ 136
fortun@@ 136
immen@@ 136
kno@@ 136
neighbor@@ 136
oud 136
phénom@@ 136
treat@@ 136
Amaz@@ 135
beg@@ 135
haps 135
kilom@@ 135
vehic@@ 135
dependent 134
ply 134
ramen@@ 134
Peu@@ 133
enced 133
etting 133
pon 133
sust@@ 133
Franc@@ 132
colle@@ 132
manag@@ 132
orie 132
pein@@ 132
ext 131
fant@@ 131
lear@@ 131
ounc@@ 131
oundation 131
pend 131
tér@@ 131
auv@@ 130
duced 130
déb@@ 130
practi@@ 130
Imag@@ 129
cul 129
inez 129
ld 129
pret@@ 129
préc@@ 129
therap@@ 129
voudr@@ 129
Regard@@ 128
bel 128
mol@@ 128
plic@@ 128
Pau@@ 127
beli@@ 127
caractéris@@ 127
chaî@@ 127
déci@@ 127
electr@@ 127
environn@@ 127
estation 127
opin@@ 127
Egy@@ 126
echno@@ 126
entrepren@@ 126
fici@@ 126
pons 126
put@@ 126
smar@@ 126
bloo@@ 125
delà 125
dle 125
ich 125
web@@ 125
éma 125
compas@@ 124
ellow 124
ennent 124
eure 124
i-même 124
logues 124
long-@@ 124
vern@@ 124
… 124
aph@@ 123
extra@@ 123
great@@ 123
reci@@ 123
rions 123
sts 123
thou@@ 123
Pren@@ 122
conom@@ 122
issait 122
stom@@ 122
tem@@ 122
Ear@@ 121
Institu@@ 121
adol@@ 121
eures 121
matéri@@ 121
Val@@ 120
anda 120
citoy@@ 120
consider@@ 120
emis@@ 120
guer@@ 120
mirac@@ 120
rur@@ 120
wai@@ 120
ada 119
destruc@@ 119
phenomen@@ 119
ress 119
électron@@ 119
Améric@@ 118
boute@@ 118
clic@@ 118
cus@@ 118
infr@@ 118
obstac@@ 118
succ@@ 118
tea@@ 118
thi@@ 118
ano 117
aster 117
chiff@@ 117
cy 117
exac@@ 117
farm@@ 117
requi@@ 117
The@@ 116
aria 116
chin@@ 116
heu@@ 116
adolesc@@ 115
bec@@ 115
deux@@ 115
nec@@ 115
traî@@ 115
underst@@ 115
écu@@ 115
civ@@ 114
gir@@ 114
ould 114
sage 114
soft 114
add@@ 113
clai@@ 113
stati@@ 113
tice 113
érence 113
atur@@ 112
ghting 112
orm@@ 112
q 112
réuni@@ 112
til 112
year-@@ 112
ception 111
ender 111
mement 111
oid 111
swit@@ 111
tici@@ 111
auté 110
certain@@ 110
ech@@ 110
extrê@@ 110
heureusement 110
journ@@ 110
minu@@ 110
nuclé@@ 110
technologi@@ 110
Ê@@ 110
+ 109
Afri@@ 109
bizar@@ 109
professi@@ 109
sim@@ 109
celle-@@ 108
cord 108
dan@@ 108
euro@@ 108
ird 108
Jus@@ 107
abe@@ 107
dimen@@ 107
ead 107
fabric@@ 107
goû@@ 107
isions 107
ource 107
perspec@@ 107
prési@@ 107
quot@@ 107
tum 107
vered 107
étu@@ 107
Q 106
camp@@ 106
endant 106
ingéni@@ 106
accessi@@ 105
adem@@ 105
exerc@@ 105
ograp@@ 105
proper@@ 105
servi@@ 105
windo@@ 105
Pres@@ 104
deed 104
désor@@ 104
endu 104
ry@@ 104
répar@@ 104
Lors@@ 103
décri@@ 103
eux-@@ 103
héro@@ 103
nouv@@ 103
ony@@ 103
remi@@ 103
réf@@ 103
tat 103
âce 103
différ@@ 102
imes 102
magas@@ 102
maî@@ 102
run@@ 102
commenc@@ 101
entir 101
ghtly 101
hack@@ 101
sement 101
got@@ 100
listen@@ 100
naiss@@ 100
Brit@@ 99
You@@ 99
compét@@ 99
efficac@@ 99
health@@ 99
premi@@ 99
puzz@@ 99
quelques-@@ 99
usual 99
œ@@ 99
Pour@@ 98
extraordin@@ 98
plann@@ 98
polic@@ 98
thérap@@ 98
writ@@ 98
érique 98
S. 97
crit 97
instru@@ 97
sue 97
temper@@ 97
tom 97
uti@@ 97
ètres 97
éro 97
Dav@@ 96
Z 96
au-@@ 96
bacter@@ 96
fonc@@ 96
ors@@ 96
pétro@@ 96
set@@ 96
success@@ 96
tron@@ 96
what@@ 96
wis@@ 96
clear@@ 95
particuli@@ 95
poll@@ 95
pos 95
quas@@ 95
relev@@ 95
ryth@@ 95
Tou@@ 94
Wom@@ 94
boî@@ 94
etry 94
igno@@ 94
pend@@ 94
Eu@@ 93
Trans@@ 93
améric@@ 93
magaz@@ 93
mê@@ 93
obs 93
surpris@@ 93
ï 93
Afgh@@ 92
eness 92
equi@@ 92
norm@@ 92
respons@@ 92
travail@@ 92
éb@@ 92
ches@@ 91
differ@@ 91
elle-@@ 91
quences 91
contex@@ 90
embl@@ 90
itié 90
Joh@@ 89
civil@@ 89
eters 89
immédi@@ 89
souh@@ 89
tempér@@ 89
démie 88
inging 88
lad@@ 88
ois@@ 88
onnes 88
ree 88
scho@@ 88
valu@@ 88
éris@@ 88
Mid@@ 87
atively 87
ington 87
mean@@ 87
with@@ 87
z-moi 87
ême 87
Australi@@ 86
NA@@ 86
acro@@ 86
complet@@ 86
réfl@@ 86
sonne 86
trau@@ 86
èce 86
ause 85
bet@@ 85
eve 85
experi@@ 85
immedi@@ 85
á@@ 85
alk 84
dren 84
hore 84
lik@@ 84
mption 84
tes-@@ 84
DP 83
ID@@ 83
bâti@@ 83
fru@@ 83
hospit@@ 83
lir 83
ston 83
trois@@ 83
ativement 82
communaut@@ 82
issu@@ 82
loir 82
lowed 82
may@@ 82
mouv@@ 82
traff@@ 82
victi@@ 82
vill@@ 82
vulner@@ 82
# 81
Wiki@@ 81
couver@@ 81
ilities 81
nia 81
rivi@@ 81
sias@@ 81
atmosp@@ 80
cept 80
ester@@ 80
j 80
midd@@ 80
oug@@ 80
vê@@ 80
= 79
compan@@ 79
compéti@@ 79
dats 79
fact@@ 79
heal@@ 79
hen@@ 79
lem@@ 79
mesu@@ 79
rying 79
réchauff@@ 79
soldi@@ 79
angu@@ 78
del 78
fortable 78
futu@@ 78
inté@@ 78
lec@@ 78
Proj@@ 77
améli@@ 77
ationale 77
célè@@ 77
epi@@ 77
méth@@ 77
scep@@ 77
vul@@ 77
érences 77
meth@@ 76
stly 76
complic@@ 75
environ@@ 75
import@@ 75
survi@@ 75
unch 75
HI@@ 74
PI@@ 74
ainc@@ 74
beh@@ 74
enly 74
formid@@ 74
jau@@ 74
knowle@@ 74
orge 74
í@@ 74
beauti@@ 73
ease 73
fits 73
inning 73
vé@@ 73
TE@@ 72
anks 72
engine@@ 72
isten 72
océ@@ 72
rière 72
sionate 72
sof@@ 72
tabl@@ 72
trilli@@ 72
ètement 72
NA 71
alg@@ 71
billi@@ 71
corru@@ 71
vertes 71
won@@ 71
ü@@ 71
Ori@@ 70
ativity 70
civiliz@@ 70
nour@@ 70
open-@@ 70
Unis 69
cky 69
compréhen@@ 69
cracy 69
ford 69
investi@@ 69
lowing 69
oin 69
secon@@ 69
urity 69
Braz@@ 68
Mexic@@ 68
gentlem@@ 68
rough@@ 68
worl@@ 68
chir@@ 67
coul@@ 67
eria 67
espo@@ 67
hav@@ 67
moy@@ 67
nies 67
other@@ 67
py@@ 67
quo@@ 67
Roy@@ 66
consid@@ 66
failu@@ 66
fronti@@ 66
ival@@ 66
lands@@ 66
ll 66
ollywood 66
rele@@ 66
ã@@ 66
Chr@@ 65
Ja@@ 65
apes 65
seem@@ 65
çu 65
étab@@ 65
Eri@@ 64
ativité 64
dru@@ 64
ducation 64
effor@@ 64
ided 64
istr@@ 64
nou@@ 64
sez 64
vous-@@ 64
Angl@@ 63
epidem@@ 63
fres@@ 63
incre@@ 63
ousness 63
pedia 63
@ 62
tely 62
ésie 62
étés 62
culp@@ 61
drew 61
fashi@@ 61
fically 61
istry 61
ough@@ 61
pharmac@@ 61
adul@@ 60
transi@@ 60
Angel@@ 59
_ 59
automobi@@ 59
campaig@@ 59
chal@@ 59
gau@@ 59
psy@@ 59
résul@@ 59
vements 59
épo@@ 59
Cert@@ 58
dialo@@ 58
istan 58
lem 58
spé@@ 58
chil@@ 57
Ira@@ 56
circu@@ 56
estern 56
extrem@@ 56
know@@ 56
nous-@@ 56
remark@@ 56
réfugi@@ 56
zaines 56
Est-@@ 55
dio 55
factu@@ 55
itely 55
itures 55
neaux 55
ouldn 55
ppe 55
profess@@ 55
ö@@ 55
) 54
Stan@@ 54
décis@@ 54
intell@@ 54
ó@@ 54
CO@@ 53
agnes 53
grow@@ 53
particu@@ 53
responsi@@ 53
reté 53
roug@@ 53
récu@@ 53
timately 53
Sub@@ 52
coff@@ 52
com 52
enorm@@ 52
hus@@ 52
neg@@ 52
rapid@@ 52
thiop@@ 52
tiz@@ 52
Pak@@ 51
avail@@ 51
entiss@@ 51
gether 51
selves 51
tionne 51
voul@@ 51
bibli@@ 50
régi@@ 50
sands 50
sever@@ 50
Bra@@ 49
Fro@@ 49
cog@@ 49
commer@@ 49
complex@@ 49
ebr@@ 49
seri@@ 49
vide@@ 49
volun@@ 49
Inst@@ 48
evid@@ 48
has@@ 48
resul@@ 48
Sm@@ 47
dai@@ 47
dow@@ 47
materi@@ 47
métap@@ 47
onc 47
scienti@@ 47
sop@@ 47
there@@ 47
Rich@@ 46
andis 46
arrass@@ 46
bilities 46
ciper 46
earing 46
efully 46
warm@@ 46
PS 45
VI@@ 45
cidents 45
through@@ 45
year@@ 45
ert@@ 44
ident 44
monstr@@ 44
âtre 44
çon 44
bén@@ 43
convinc@@ 43
ergy 43
jard@@ 43
scientifi@@ 43
titles 43
² 43
‘ 43
brilli@@ 42
busin@@ 42
child@@ 42
eils 42
sudd@@ 42
tish 42
volution 42
aug@@ 41
enreg@@ 41
envir@@ 41
lyc@@ 41
sear@@ 41
techni@@ 41
world@@ 41
AD@@ 40
beau@@ 40
cellu@@ 40
design@@ 40
eras 40
heur 40
lang@@ 40
oce@@ 40
tech@@ 40
thè@@ 40
Glob@@ 39
enever 39
extre@@ 39
* 38
Beau@@ 38
bien-@@ 38
cert@@ 38
déch@@ 38
décl@@ 38
métho@@ 38
notic@@ 38
obj@@ 38
tembre 38
ycl@@ 38
Isl@@ 37
ancs 37
atement 37
ceau 37
eum 37
expéri@@ 37
secre@@ 37
somme@@ 37
Americ@@ 36
Ox@@ 36
Stre@@ 36
jà 36
licon 36
major@@ 36
mente 36
phil@@ 36
well@@ 36
ë 36
hosp@@ 35
plé@@ 35
titu@@ 35
tâ@@ 35
Stat@@ 34
applic@@ 34
behav@@ 34
capac@@ 34
chaus@@ 34
dden 34
eties 34
marri@@ 34
abl@@ 33
actly 33
champ@@ 33
derni@@ 33
expen@@ 33
hundre@@ 33
moment-@@ 33
nucl@@ 33
résou@@ 33
tradi@@ 33
ween 33
Intern@@ 32
anx@@ 32
clas@@ 32
esn 32
esome 32
expan@@ 32
tau@@ 32
tremend@@ 32
ñ@@ 32
Allem@@ 31
awar@@ 31
duce 31
fair@@ 31
intér@@ 31
ministr@@ 31
passe-@@ 31
pub@@ 31
suici@@ 31
Scho@@ 30
Tex@@ 30
dament@@ 30
evolu@@ 30
hist@@ 30
stac@@ 30
strat@@ 30
tribu@@ 30
ustr@@ 30
Europe@@ 29
Ghan@@ 29
disponi@@ 29
eces 29
enge 29
musi@@ 29
ric@@ 29
strugg@@ 29
éto@@ 29
Royau@@ 28
alifor@@ 28
anthro@@ 28
ceaux 28
insp@@ 28
maz@@ 28
nul@@ 28
perfor@@ 28
suj@@ 28
versity 28
Harv@@ 27
IT 27
entôt 27
mau@@ 27
mémo@@ 27
osau@@ 27
particul@@ 27
réfu@@ 27
êt 27
aign@@ 26
convers@@ 26
effic@@ 26
emble 26
exion 26
get@@ 26
itaux 26
olly@@ 26
plément@@ 26
seaux 26
usement 26
volon@@ 26
è 26
orrow 25
préhen@@ 25
ques-@@ 25
Micro@@ 24
Moo@@ 24
circum@@ 24
exemp@@ 24
infir@@ 24
rase 24
renouv@@ 24
vidé@@ 24
Â@@ 24
Î@@ 24
accompli@@ 23
déjeu@@ 23
eci@@ 23
esterday 23
iPh@@ 23
lent@@ 23
mount@@ 23
othè@@ 23
versité 23
Engl@@ 22
automo@@ 22
call@@ 22
grés 22
phen@@ 22
sag@@ 22
sente 22
tils 22
wom@@ 22
á 22
èces 22
( 21
démonstr@@ 21
paig@@ 21
tats-@@ 21
tements 21
èmement 21
alth 20
craz@@ 20
diffic@@ 20
necess@@ 20
quick@@ 20
biz@@ 19
possi@@ 19
ë@@ 19
™ 19
Chic@@ 18
Marti@@ 18
chea@@ 18
célé@@ 18
humain@@ 18
mater@@ 18
pover@@ 18
usu@@ 18
¨ 18
ainst 17
doll@@ 17
feed@@ 17
hic@@ 17
véhic@@ 17
û 17
abs@@ 16
dership 16
fiel@@ 16
pattern@@ 16
strateg@@ 16
ult 16
à@@ 16
ä@@ 16
ó 16
BI 15
Brési@@ 15
Rw@@ 15
Uni 15
consi@@ 15
diseas@@ 15
décen@@ 15
empor@@ 15
histo@@ 15
lities 15
sat@@ 15
telev@@ 15
véc@@ 15
Austr@@ 14
achi@@ 14
astruc@@ 14
isco 14
paravant 14
r. 14
tricité 14
électri@@ 14
Japan@@ 13
acter@@ 13
antage 13
demon@@ 13
feel@@ 13
hère 13
́ 13
Fir@@ 12
IDS 12
Twit@@ 12
gion 12
langu@@ 12
médec@@ 12
médicam@@ 12
pharm@@ 12
pouvi@@ 12
pres 12
rab 12
slow@@ 12
tidi@@ 12
énor@@ 12
ø@@ 12
Fren@@ 11
^ 11
chrom@@ 11
dience 11
dn 11
eball 11
endro@@ 11
impanz@@ 11
mosp@@ 11
nomb@@ 11
phén@@ 11
probab@@ 11
proces@@ 11
raid 11
£ 11
ù 11
€ 11
Micha@@ 10
comple@@ 10
lites 10
metaph@@ 10
quan@@ 10
sophis@@ 10
thémati@@ 10
your@@ 10
½ 10
Ç@@ 10
ć 10
æ@@ 9
º@@ 8
ô 8
อ@@ 8
í 7
​ 7
º 6
Á@@ 6
È@@ 6
Ô 6
ā@@ 6
 5
® 5
â 5
ú 5
ȇ@@ 5
ร 4
่ 4
~ 3
 3
 3
 3
 3
ī@@ 3
ย 3
 2
¡ 2
¥ 2
© 2
­ 2
¾ 2
Å@@ 2
É 2
Ï 2
Ï@@ 2
æ 2
ø 2
ù@@ 2
ú@@ 2
ü 2
ā 2
Č@@ 2
Ė@@ 2
ě@@ 2
ī 2
Œ@@ 2
ū@@ 2
‹ 2
› 2
葱 2
� 2
#@@ 1
&@@ 1
{ 1
 1
¢ 1
± 1
³ 1
µ 1
¼ 1
¿ 1
Ì@@ 1
Ü@@ 1
å 1
ê 1
ì 1
î 1
ò@@ 1
ē 1
ň@@ 1
ō@@ 1
š@@ 1
˚ 1
̐ 1
ع@@ 1
ق@@ 1
ل 1
م@@ 1
و@@ 1
ย@@ 1
ị@@ 1
√ 1
≈ 1
你 1
你@@ 1
送 1
送@@ 1
madeupword0000 0
madeupword0001 0
madeupword0002 0
